<unk>	0
<s>	0
</s>	0
<0x00>	0
<0x01>	0
<0x02>	0
<0x03>	0
<0x04>	0
<0x05>	0
<0x06>	0
<0x07>	0
<0x08>	0
<0x09>	0
<0x0A>	0
<0x0B>	0
<0x0C>	0
<0x0D>	0
<0x0E>	0
<0x0F>	0
<0x10>	0
<0x11>	0
<0x12>	0
<0x13>	0
<0x14>	0
<0x15>	0
<0x16>	0
<0x17>	0
<0x18>	0
<0x19>	0
<0x1A>	0
<0x1B>	0
<0x1C>	0
<0x1D>	0
<0x1E>	0
<0x1F>	0
<0x20>	0
<0x21>	0
<0x22>	0
<0x23>	0
<0x24>	0
<0x25>	0
<0x26>	0
<0x27>	0
<0x28>	0
<0x29>	0
<0x2A>	0
<0x2B>	0
<0x2C>	0
<0x2D>	0
<0x2E>	0
<0x2F>	0
<0x30>	0
<0x31>	0
<0x32>	0
<0x33>	0
<0x34>	0
<0x35>	0
<0x36>	0
<0x37>	0
<0x38>	0
<0x39>	0
<0x3A>	0
<0x3B>	0
<0x3C>	0
<0x3D>	0
<0x3E>	0
<0x3F>	0
<0x40>	0
<0x41>	0
<0x42>	0
<0x43>	0
<0x44>	0
<0x45>	0
<0x46>	0
<0x47>	0
<0x48>	0
<0x49>	0
<0x4A>	0
<0x4B>	0
<0x4C>	0
<0x4D>	0
<0x4E>	0
<0x4F>	0
<0x50>	0
<0x51>	0
<0x52>	0
<0x53>	0
<0x54>	0
<0x55>	0
<0x56>	0
<0x57>	0
<0x58>	0
<0x59>	0
<0x5A>	0
<0x5B>	0
<0x5C>	0
<0x5D>	0
<0x5E>	0
<0x5F>	0
<0x60>	0
<0x61>	0
<0x62>	0
<0x63>	0
<0x64>	0
<0x65>	0
<0x66>	0
<0x67>	0
<0x68>	0
<0x69>	0
<0x6A>	0
<0x6B>	0
<0x6C>	0
<0x6D>	0
<0x6E>	0
<0x6F>	0
<0x70>	0
<0x71>	0
<0x72>	0
<0x73>	0
<0x74>	0
<0x75>	0
<0x76>	0
<0x77>	0
<0x78>	0
<0x79>	0
<0x7A>	0
<0x7B>	0
<0x7C>	0
<0x7D>	0
<0x7E>	0
<0x7F>	0
<0x80>	0
<0x81>	0
<0x82>	0
<0x83>	0
<0x84>	0
<0x85>	0
<0x86>	0
<0x87>	0
<0x88>	0
<0x89>	0
<0x8A>	0
<0x8B>	0
<0x8C>	0
<0x8D>	0
<0x8E>	0
<0x8F>	0
<0x90>	0
<0x91>	0
<0x92>	0
<0x93>	0
<0x94>	0
<0x95>	0
<0x96>	0
<0x97>	0
<0x98>	0
<0x99>	0
<0x9A>	0
<0x9B>	0
<0x9C>	0
<0x9D>	0
<0x9E>	0
<0x9F>	0
<0xA0>	0
<0xA1>	0
<0xA2>	0
<0xA3>	0
<0xA4>	0
<0xA5>	0
<0xA6>	0
<0xA7>	0
<0xA8>	0
<0xA9>	0
<0xAA>	0
<0xAB>	0
<0xAC>	0
<0xAD>	0
<0xAE>	0
<0xAF>	0
<0xB0>	0
<0xB1>	0
<0xB2>	0
<0xB3>	0
<0xB4>	0
<0xB5>	0
<0xB6>	0
<0xB7>	0
<0xB8>	0
<0xB9>	0
<0xBA>	0
<0xBB>	0
<0xBC>	0
<0xBD>	0
<0xBE>	0
<0xBF>	0
<0xC0>	0
<0xC1>	0
<0xC2>	0
<0xC3>	0
<0xC4>	0
<0xC5>	0
<0xC6>	0
<0xC7>	0
<0xC8>	0
<0xC9>	0
<0xCA>	0
<0xCB>	0
<0xCC>	0
<0xCD>	0
<0xCE>	0
<0xCF>	0
<0xD0>	0
<0xD1>	0
<0xD2>	0
<0xD3>	0
<0xD4>	0
<0xD5>	0
<0xD6>	0
<0xD7>	0
<0xD8>	0
<0xD9>	0
<0xDA>	0
<0xDB>	0
<0xDC>	0
<0xDD>	0
<0xDE>	0
<0xDF>	0
<0xE0>	0
<0xE1>	0
<0xE2>	0
<0xE3>	0
<0xE4>	0
<0xE5>	0
<0xE6>	0
<0xE7>	0
<0xE8>	0
<0xE9>	0
<0xEA>	0
<0xEB>	0
<0xEC>	0
<0xED>	0
<0xEE>	0
<0xEF>	0
<0xF0>	0
<0xF1>	0
<0xF2>	0
<0xF3>	0
<0xF4>	0
<0xF5>	0
<0xF6>	0
<0xF7>	0
<0xF8>	0
<0xF9>	0
<0xFA>	0
<0xFB>	0
<0xFC>	0
<0xFD>	0
<0xFE>	0
<0xFF>	0
َا	-0
َّ	-1
ِي	-2
▁ا	-3
ُو	-4
▁ال	-5
▁و	-6
نَ	-7
لَ	-8
▁وَ	-9
أَ	-10
ُم	-11
▁م	-12
ِن	-13
▁أَ	-14
▁ف	-15
عَ	-16
▁ي	-17
تَ	-18
▁الْ	-19
ُمْ	-20
لَّ	-21
هِ	-22
▁ب	-23
▁إ	-24
كَ	-25
رَ	-26
ُوا	-27
مَ	-28
يْ	-29
هُ	-30
َّا	-31
ُونَ	-32
لِ	-33
▁يَ	-34
ًا	-35
لْ	-36
▁فَ	-37
ِّ	-38
▁عَ	-39
ِينَ	-40
▁بِ	-41
وْ	-42
▁اللَّ	-43
▁ق	-44
لَا	-45
▁لَ	-46
نَا	-47
▁إِ	-48
مَا	-49
هُمْ	-50
عْ	-51
مْ	-52
ىٰ	-53
▁تَ	-54
رْ	-55
سَ	-56
▁وَا	-57
▁إِن	-58
بَ	-59
كُمْ	-60
هَا	-61
▁فِي	-62
ُّ	-63
هَ	-64
حَ	-65
مُ	-66
▁ك	-67
▁مِن	-68
سْ	-69
▁عَلَ	-70
رِ	-71
قَ	-72
نَّ	-73
تِ	-74
نِ	-75
▁يُ	-76
تُ	-77
َيْ	-78
▁الَّ	-79
بْ	-80
فَ	-81
حْ	-82
مِ	-83
▁رَ	-84
ذَا	-85
ذِينَ	-86
دَ	-87
جَ	-88
▁إِنَّ	-89
▁مَ	-90
▁أَن	-91
▁كَ	-92
هُم	-93
يَ	-94
▁قَ	-95
بِ	-96
دْ	-97
َاء	-98
▁اللَّهِ	-99
ـٰ	-100
لَّا	-101
رُ	-102
▁بَ	-103
▁مَا	-104
رَّ	-105
ِّن	-106
▁آ	-107
ذَ	-108
خَ	-109
▁الَّذِينَ	-110
لُ	-111
▁إِلَ	-112
▁لِ	-113
كُم	-114
لِي	-115
هِمْ	-116
▁قَا	-117
▁وَلَ	-118
▁وَأَ	-119
▁مِّن	-120
تَّ	-121
▁رَب	-122
▁اللَّهُ	-123
مَن	-124
سِ	-125
▁ش	-126
ُن	-127
إِن	-128
▁كَا	-129
ُل	-130
▁عَلَيْ	-131
تْ	-132
▁لَا	-133
▁إِلَّا	-134
▁وَلَا	-135
جْ	-136
▁الْأَ	-137
▁وَمَا	-138
فْ	-139
كْ	-140
▁سَ	-141
▁نَ	-142
نُ	-143
وَا	-144
▁حَ	-145
▁وَالْ	-146
لُوا	-147
دِ	-148
▁بِا	-149
ئِ	-150
فِ	-151
يَا	-152
▁اللَّهَ	-153
▁أ	-154
▁ع	-155
▁مِ	-156
رًا	-157
هْ	-158
رَا	-159
مِن	-160
بِي	-161
إِ	-162
بُ	-163
خْ	-164
▁الْمُ	-165
ُوَ	-166
ِّي	-167
نْ	-168
▁الس	-169
ؤْ	-170
َاءَ	-171
▁تُ	-172
قْ	-173
رْض	-174
ةِ	-175
سْتَ	-176
نَّا	-177
أْ	-178
ةً	-179
لُونَ	-180
رُونَ	-181
وَ	-182
لِكَ	-183
▁وَال	-184
ذْ	-185
هُوَ	-186
ذَٰ	-187
تَا	-188
بَا	-189
قَا	-190
تُمْ	-191
رُوا	-192
▁مِنْ	-193
رِي	-194
▁قَالَ	-195
▁ث	-196
مٌ	-197
▁مُّ	-198
▁جَ	-199
رٌ	-200
لَم	-201
▁لَّ	-202
دُ	-203
ِيَ	-204
▁السَّ	-205
ُلْ	-206
▁عَلَىٰ	-207
ذَٰلِكَ	-208
▁فَا	-209
زَ	-210
▁هَ	-211
كَا	-212
شْ	-213
ُمَّ	-214
▁مِنَ	-215
▁خَ	-216
صَ	-217
كِ	-218
حِ	-219
▁مِّ	-220
صْ	-221
ذِي	-222
ؤْمِن	-223
▁خ	-224
جِ	-225
ةٍ	-226
▁ل	-227
دِي	-228
▁الرَّ	-229
فُ	-230
سُ	-231
▁أَوْ	-232
عِ	-233
▁مَّ	-234
▁مُ	-235
▁وَيَ	-236
قُو	-237
وْمَ	-238
ةٌ	-239
▁يَا	-240
▁بِالْ	-241
▁كَانَ	-242
غْ	-243
نُوا	-244
▁وَإِن	-245
حَا	-246
▁الْحَ	-247
ةَ	-248
▁بِهِ	-249
كُ	-250
لًا	-251
رْضِ	-252
▁ثُمَّ	-253
نِي	-254
▁بَعْ	-255
مَّا	-256
▁يَعْ	-257
عُ	-258
هُمُ	-259
مٍ	-260
غَ	-261
▁ج	-262
▁وَإِ	-263
حِي	-264
مًا	-265
خِ	-266
طَ	-267
ضَ	-268
▁رَبِّ	-269
▁كُن	-270
لْنَا	-271
▁فَأَ	-272
سُو	-273
سَا	-274
قِ	-275
ذِ	-276
▁بِمَا	-277
ثَ	-278
لَّهِ	-279
▁الْمَ	-280
▁آمَن	-281
▁النَّا	-282
بِّ	-283
حْمَ	-284
▁لِّ	-285
▁السَّمَا	-286
دُو	-287
قُ	-288
▁رَّ	-289
▁مِّنَ	-290
▁مِّنْ	-291
ئِكَ	-292
▁ذَٰلِكَ	-293
دًا	-294
▁شَيْ	-295
شَ	-296
▁أَمْ	-297
▁الْعَ	-298
لَّذِينَ	-299
رِينَ	-300
▁الَّذِي	-301
تُم	-302
قَدْ	-303
▁هُوَ	-304
▁إِلَىٰ	-305
صَا	-306
عَا	-307
▁الص	-308
لَّهُ	-309
مِي	-310
▁بَيْ	-311
▁قَوْ	-312
▁فَإِن	-313
▁آمَنُوا	-314
يِّ	-315
▁إِلَيْ	-316
▁قَالُوا	-317
قِي	-318
▁تَعْ	-319
▁لَهُ	-320
▁قُلْ	-321
ًّا	-322
دُونَ	-323
ةُ	-324
▁قَبْ	-325
▁عَلَى	-326
▁فِيهَا	-327
▁أُو	-328
▁وَاللَّهُ	-329
تِي	-330
▁شَ	-331
▁مَن	-332
ضْ	-333
عُونَ	-334
▁وَمَن	-335
كُمُ	-336
رٍ	-337
▁كَانُوا	-338
▁كُل	-339
ثْ	-340
▁عَلَيْهِ	-341
ءٍ	-342
حُ	-343
▁كَفَ	-344
▁أَنَّ	-345
يُ	-346
▁الْأَرْضِ	-347
بًا	-348
▁بِال	-349
دَّ	-350
▁لَهُمْ	-351
صِ	-352
ِنَا	-353
▁وَالْأَ	-354
دَا	-355
غَيْ	-356
صِي	-357
▁أَي	-358
▁مَّا	-359
نٍ	-360
▁عَذَا	-361
▁يَوْمَ	-362
▁بَيْنَ	-363
َّالِ	-364
▁وَعَ	-365
ءِ	-366
زْ	-367
قُوا	-368
َاءُ	-369
▁إِذَا	-370
بٌ	-371
زِي	-372
مِينَ	-373
▁أَعْ	-374
طَا	-375
قَوْ	-376
▁لِي	-377
▁جَاءَ	-378
▁كَفَرُوا	-379
▁الد	-380
وَاتِ	-381
زِ	-382
جَا	-383
كِتَا	-384
▁وَرَ	-385
تٍ	-386
▁عِن	-387
▁عِ	-388
▁رَبَّ	-389
▁ظ	-390
بُوا	-391
شَّ	-392
دُوا	-393
▁شَيْءٍ	-394
▁وَتَ	-395
▁السَّمَاوَاتِ	-396
لَمُ	-397
▁عَنْ	-398
▁أُ	-399
▁وَقَا	-400
لَمُونَ	-401
▁وَهُوَ	-402
لٍ	-403
▁أَيُّ	-404
▁لَكُمْ	-405
ُوهُ	-406
آيَا	-407
لَمْ	-408
َالِ	-409
كِي	-410
▁الْكِتَا	-411
▁الرَّحْمَ	-412
▁وَالَّذِينَ	-413
نًا	-414
▁خَلَ	-415
▁يَأْ	-416
كُونَ	-417
ذِّ	-418
لِهِ	-419
قِينَ	-420
رَىٰ	-421
▁صَ	-422
▁عَن	-423
▁لَّا	-424
ذَّ	-425
قُونَ	-426
▁فَلَا	-427
▁إِنَّا	-428
آخِ	-429
عُوا	-430
▁خَيْ	-431
وْا	-432
▁غَ	-433
سَىٰ	-434
ِنَّ	-435
يْنَا	-436
▁إِذْ	-437
مُونَ	-438
▁كُنتُمْ	-439
عَلَ	-440
لِيمٌ	-441
▁أَهْ	-442
هِي	-443
▁أَيُّهَا	-444
بٍ	-445
فُو	-446
وْنَ	-447
▁بِأَ	-448
▁إِنَّهُ	-449
طِ	-450
▁ن	-451
▁نُ	-452
▁قُل	-453
▁الرَّحِي	-454
تَّىٰ	-455
رُو	-456
عِي	-457
▁هُمْ	-458
ؤْمِنِينَ	-459
طْ	-460
▁حَتَّىٰ	-461
▁عِندَ	-462
▁عَلَيْهِمْ	-463
كَّ	-464
▁إِلَى	-465
▁وَأَن	-466
مَلُونَ	-467
▁فَإِنَّ	-468
دٌ	-469
كُل	-470
دُونِ	-471
▁وَجَ	-472
▁بِاللَّهِ	-473
جُ	-474
خَا	-475
دِينَ	-476
شَاءُ	-477
▁فِيهِ	-478
دٍ	-479
▁أَفَ	-480
▁رَبُّ	-481
▁سَبِي	-482
لَىٰ	-483
ٌّ	-484
▁أُولَ	-485
▁نَّ	-486
▁وَإِنَّ	-487
سْمِ	-488
▁وَكَ	-489
▁وَلَوْ	-490
فِي	-491
▁آيَا	-492
▁الْبَ	-493
▁دُونِ	-494
▁إِنِّي	-495
▁يَسْتَ	-496
رِّ	-497
▁وَإِذَا	-498
ؤْمِنُونَ	-499
بُونَ	-500
▁الشَّ	-501
▁كُلِّ	-502
لٌ	-503
ُّو	-504
قِّ	-505
يَّ	-506
كُو	-507
هُمَا	-508
▁اتَّ	-509
▁وَيُ	-510
▁يَتَ	-511
عًا	-512
▁فِ	-513
عَلَّ	-514
▁قَدْ	-515
▁مَعَ	-516
▁بَعْدِ	-517
غْفِ	-518
ُّوا	-519
▁مُو	-520
▁كُ	-521
▁الظ	-522
▁وَلَقَدْ	-523
ئْ	-524
نٌ	-525
فَا	-526
لُو	-527
رْسَ	-528
كَانَ	-529
▁الدُّ	-530
▁عَلَيْكُمْ	-531
▁يَن	-532
▁وَنَ	-533
▁النَّ	-534
عَلْنَا	-535
زُ	-536
آخِرَ	-537
▁الرَّحِيمِ	-538
ُّونَ	-539
تِنَا	-540
▁عَا	-541
نْيَا	-542
▁رَّبِّ	-543
▁الدُّنْيَا	-544
أُو	-545
▁أَجْ	-546
▁أَنفُ	-547
طِي	-548
▁ضَ	-549
▁بِسْمِ	-550
▁إِنَّمَا	-551
رْضَ	-552
شْرِ	-553
▁فَتَ	-554
فُونَ	-555
صُ	-556
ضِ	-557
زَّ	-558
ظِي	-559
عُو	-560
َاتِ	-561
▁وَهُمْ	-562
أُ	-563
ؤُ	-564
ضُ	-565
كُن	-566
▁وَلِ	-567
▁يَوْ	-568
▁وَمِن	-569
▁يَقُو	-570
كَافِ	-571
▁يَشَاءُ	-572
▁وَالْأَرْضِ	-573
▁سُ	-574
لِينَ	-575
مَّ	-576
▁فَإِ	-577
تِهِ	-578
لَهُ	-579
▁أَيْ	-580
▁مُوسَىٰ	-581
ذُ	-582
سِي	-583
▁صَا	-584
▁نَفْ	-585
وَّ	-586
▁أَكْ	-587
▁تَحْ	-588
▁لِلْ	-589
لَمَّا	-590
▁لِلَّهِ	-591
▁قُ	-592
▁بَلْ	-593
▁الْجَ	-594
▁قُلُو	-595
▁فَلَمَّا	-596
▁ظَ	-597
مُوا	-598
▁عَلِيمٌ	-599
شِ	-600
ظُ	-601
▁وَآ	-602
▁اسْتَ	-603
▁بِآيَا	-604
عْمَ	-605
▁غَيْ	-606
▁وَقَالَ	-607
جُو	-608
▁يُو	-609
▁تَأْ	-610
قًا	-611
▁طَ	-612
▁وَبَ	-613
▁وَمَ	-614
▁مُّبِي	-615
▁بُ	-616
قْنَا	-617
▁كَيْ	-618
▁لَوْ	-619
▁أَنزَ	-620
▁الْقُ	-621
ًى	-622
ثِي	-623
▁فَمَا	-624
▁كِ	-625
▁أَحَ	-626
آخِرَةِ	-627
▁النَّاسِ	-628
ٍّ	-629
لَيْ	-630
مِنَ	-631
▁لِل	-632
▁إِنْ	-633
▁لَعَلَّ	-634
▁دَ	-635
▁يَفْ	-636
▁قَوْمِ	-637
▁الظَّالِ	-638
ظْ	-639
بَّ	-640
طَّ	-641
تُوا	-642
▁لَمْ	-643
▁يَخْ	-644
لَمُوا	-645
ئًا	-646
▁وَاتَّ	-647
▁وَكَانَ	-648
رُّ	-649
يِّن	-650
▁خَلَقَ	-651
كِن	-652
▁رُ	-653
حْنُ	-654
سْأَ	-655
مَةِ	-656
َاءِ	-657
▁لِيَ	-658
▁يَحْ	-659
▁فَإِذَا	-660
▁يُؤْمِنُونَ	-661
زَا	-662
سَّ	-663
▁الصَّ	-664
▁الْيَ	-665
▁رَبِّي	-666
▁الْعَذَا	-667
كَافِرِينَ	-668
بُّ	-669
تُو	-670
ِيلَ	-671
▁الْقَ	-672
▁خَالِ	-673
▁بِالْحَ	-674
▁إِلَيْهِ	-675
▁الصَّالِ	-676
ذُو	-677
لِح	-678
▁أَنْ	-679
▁كَذَٰلِكَ	-680
▁تَعْمَلُونَ	-681
ئِن	-682
قَّ	-683
دَيْ	-684
▁أَصْ	-685
▁يَهْ	-686
▁كَذَّ	-687
ثُ	-688
▁ثَ	-689
تِيَ	-690
▁بِهَا	-691
▁رَبِّكَ	-692
▁السَّمَاءِ	-693
▁يَعْلَمُونَ	-694
غَا	-695
جْعَ	-696
رْعَ	-697
يْنِ	-698
لَاءِ	-699
وَلَّ	-700
▁هُمُ	-701
▁رَسُو	-702
فًا	-703
غُ	-704
كَذِّ	-705
هُنَّ	-706
▁أَلَمْ	-707
▁خَيْرٌ	-708
▁رَّحِي	-709
▁الْكِتَابَ	-710
▁الْمُؤْمِنِينَ	-711
▁شُ	-712
رْيَ	-713
قِيَا	-714
هَنَّ	-715
▁فَسَ	-716
▁فَلَ	-717
▁عِبَا	-718
▁لِّلْ	-719
▁الْعَا	-720
▁شَيْئًا	-721
▁عَذَابٌ	-722
▁الْكِتَابِ	-723
مُو	-724
▁نَا	-725
بِينَ	-726
بْرَا	-727
مِلُوا	-728
▁لَكُم	-729
تَيْنَا	-730
ءَ	-731
خُ	-732
ثَا	-733
دَىٰ	-734
رَةٌ	-735
لْيَ	-736
َاءً	-737
▁فَيَ	-738
▁يَرْ	-739
▁لَنَا	-740
▁لَّمْ	-741
▁وَلِي	-742
▁قَبْلِ	-743
▁إِلَيْكَ	-744
▁بِالْحَقِّ	-745
ذٍ	-746
ذِكْ	-747
▁تَرَ	-748
▁مَنْ	-749
لَائِكَ	-750
لَمِينَ	-751
رْسَلْنَا	-752
هِم	-753
أُولَ	-754
▁أَحْ	-755
▁عَنِ	-756
▁يَكْ	-757
▁غَفُو	-758
▁جَهَنَّ	-759
▁سَبِيلِ	-760
لِّ	-761
▁حُ	-762
ئِذٍ	-763
خْرِ	-764
▁عَظِي	-765
▁أَكْثَ	-766
رْآ	-767
▁حِ	-768
▁رِ	-769
▁زَ	-770
رَأَ	-771
دْنَا	-772
▁كِتَا	-773
▁قَبْلُ	-774
قِيَامَةِ	-775
▁النَّارِ	-776
▁الْقِيَامَةِ	-777
ئَ	-778
عٌ	-779
وِي	-780
▁نُو	-781
▁لَيْ	-782
▁لَهُم	-783
▁الْإِن	-784
▁وَإِذْ	-785
بْرَاهِي	-786
ظَ	-787
بَتْ	-788
هِيَ	-789
▁أُن	-790
▁دَا	-791
عْنَا	-792
▁الْعِ	-793
▁كَثِي	-794
▁وَرَسُو	-795
▁رَبَّنَا	-796
▁يَعْلَمُ	-797
▁لَكَ	-798
▁الْفَ	-799
▁فَمَن	-800
▁قَلِي	-801
▁فِرْعَ	-802
▁مِنْهُمْ	-803
ذْكُ	-804
رْنَا	-805
هِنَّ	-806
▁تَجْ	-807
▁يَشْ	-808
▁وَالْمُ	-809
قُّ	-810
▁أَبْ	-811
▁كُلَّ	-812
▁وَمِنْ	-813
▁مِنْهَا	-814
▁وَأَنَّ	-815
بُو	-816
يُو	-817
▁نِ	-818
تَّبِ	-819
يْطَا	-820
▁عِلْ	-821
▁فَضْ	-822
▁وَسَ	-823
▁وَقَ	-824
▁أُمَّ	-825
▁الْقَوْ	-826
▁الْعَزِي	-827
▁الظَّالِمِينَ	-828
جْرِ	-829
سْمَ	-830
كُلِّ	-831
▁هَلْ	-832
▁يَبْ	-833
▁كُنَّا	-834
▁أَصْحَا	-835
▁الْحَيَا	-836
▁الشَّيْطَا	-837
▁يَوْمَئِذٍ	-838
دِهِ	-839
رَةً	-840
رُهُمْ	-841
▁بَعْدَ	-842
▁جَنَّا	-843
▁كَيْفَ	-844
▁إِبْرَاهِي	-845
ضٍ	-846
دِّ	-847
ذُوا	-848
فْسِ	-849
▁الن	-850
▁يُن	-851
كِنَّ	-852
▁كَمَا	-853
▁يُرِي	-854
▁الْمَوْ	-855
▁أَرْسَلْنَا	-856
▁الصَّالِحَا	-857
▁الْعَالَمِينَ	-858
▁ذَ	-859
فُوا	-860
▁ابْ	-861
قُولُ	-862
نَّاسِ	-863
▁قُلُوبِ	-864
▁وَقَالُوا	-865
▁هُ	-866
خَذَ	-867
لِمَ	-868
▁اللَّيْ	-869
▁رَبِّهِمْ	-870
▁الصَّالِحَاتِ	-871
نظُ	-872
زِلَ	-873
وَىٰ	-874
تَّخِ	-875
▁أَوَ	-876
▁يَدْ	-877
▁جَمِي	-878
▁أَهْلَ	-879
▁مِنكُمْ	-880
▁الصَّلَا	-881
▁رَّحِيمٌ	-882
▁الْإِنسَا	-883
ءُ	-884
سٍ	-885
قٍ	-886
جَّ	-887
حْي	-888
نتَ	-889
عْبُ	-890
▁هَا	-891
▁جَعَلَ	-892
▁مِمَّا	-893
▁الَّتِي	-894
▁الْأَنْ	-895
▁بِآيَاتِنَا	-896
جِي	-897
فَّ	-898
▁صِ	-899
عْتَ	-900
▁خَا	-901
تِهَا	-902
حِينَ	-903
ِّينَ	-904
▁إِسْ	-905
▁الْكَ	-906
▁شَاءَ	-907
▁عَلَيْكَ	-908
▁يَعْمَلُونَ	-909
▁س	-910
فْتَ	-911
▁فَبِ	-912
▁مَّن	-913
▁أَنتَ	-914
▁حَكِي	-915
نَّهُمْ	-916
▁نَحْنُ	-917
▁أَنفُسَ	-918
▁أَعْلَمُ	-919
▁قَلِيلًا	-920
▁الْآخِرَةِ	-921
▁تَعْلَمُونَ	-922
كُمَا	-923
▁بِرَ	-924
▁وَبِ	-925
▁يُؤْ	-926
قَوْمٍ	-927
ِنِينَ	-928
▁أَلَا	-929
▁مِّمَّا	-930
▁إِنَّهُمْ	-931
▁جَهَنَّمَ	-932
لَى	-933
لُّ	-934
▁سِ	-935
▁خَلْ	-936
▁ذِكْ	-937
▁كُلُّ	-938
▁أَنتُمْ	-939
▁أُنزِلَ	-940
▁الْجَنَّ	-941
▁وَعَمِلُوا	-942
شِّ	-943
تِلْ	-944
رِّي	-945
ذَٰلِ	-946
زْوَا	-947
كِينَ	-948
لَهُمْ	-949
▁أَنَا	-950
▁وَاحِ	-951
▁مِنْهُ	-952
قُولُونَ	-953
▁رَبَّكَ	-954
▁لَّكُمْ	-955
▁الْكَافِرِينَ	-956
فٌ	-957
دُّ	-958
▁وُ	-959
سْلِ	-960
ُنُو	-961
▁سَا	-962
▁تَدْ	-963
▁فَكَ	-964
▁فَقَا	-965
▁السَّا	-966
▁غَفُورٌ	-967
▁عَنْهُمْ	-968
▁عَلَيْنَا	-969
▁يَقُولُونَ	-970
بَعَ	-971
رْسِ	-972
فَّا	-973
قْتُ	-974
لُهُ	-975
هْتَ	-976
▁آيَ	-977
تُونَ	-978
▁مَوْ	-979
دِقِينَ	-980
▁فَقَدْ	-981
▁مِّنْهُمْ	-982
▁لِلَّذِينَ	-983
▁لَعَلَّكُمْ	-984
▁وَجَعَلْنَا	-985
تٌ	-986
وُ	-987
وِ	-988
حُوا	-989
خَذْ	-990
دِيَ	-991
وَالِ	-992
▁أَبَ	-993
▁رَحْمَ	-994
▁عَمَّا	-995
▁إِنَّكَ	-996
▁تَجْرِي	-997
▁وَالْمَ	-998
▁جَمِيعًا	-999
ذِهِ	-1000
سَنَ	-1001
صْبِ	-1002
لَمَ	-1003
▁أَدْ	-1004
▁فَوْ	-1005
▁لِيُ	-1006
▁هِيَ	-1007
▁يَمْ	-1008
▁يُحِ	-1009
▁الْأَمْ	-1010
▁فَاسْتَ	-1011
▁يَهْدِي	-1012
▁النَّاسَ	-1013
▁الْحَقُّ	-1014
▁فِرْعَوْنَ	-1015
نَىٰ	-1016
يْتَ	-1017
▁تَن	-1018
▁أَجَ	-1019
▁لِّي	-1020
بَيِّن	-1021
▁وَلَمْ	-1022
كَّرُونَ	-1023
▁أَنزَلَ	-1024
▁الصَّلَاةَ	-1025
▁إِبْرَاهِيمَ	-1026
ثِ	-1027
هُو	-1028
▁ذُ	-1029
خْرَ	-1030
قْرَ	-1031
مَنَ	-1032
كْنَا	-1033
▁أَتَ	-1034
▁أَلْ	-1035
▁بِإِ	-1036
غَيْرِ	-1037
▁الْخَ	-1038
▁بَنِي	-1039
▁شَدِي	-1040
ؤُلَاءِ	-1041
قِلُونَ	-1042
▁وَمَنْ	-1043
▁فَأُولَ	-1044
▁وَالنَّ	-1045
▁آتَيْنَا	-1046
▁الرَّسُو	-1047
▁كَثِيرًا	-1048
▁جَعَلْنَا	-1049
▁عَلَيْهَا	-1050
▁الْعَزِيزُ	-1051
شُ	-1052
تًا	-1053
شِي	-1054
ضَا	-1055
ضَّ	-1056
يْنَ	-1057
▁جَا	-1058
عِينَ	-1059
ِيمَا	-1060
▁يَرَ	-1061
رَهُمْ	-1062
غْفِرْ	-1063
لُهُمْ	-1064
▁التَّ	-1065
▁ذَٰلِ	-1066
▁أَلَّا	-1067
▁بَعْضُ	-1068
▁غَيْرَ	-1069
▁أَفَلَا	-1070
▁أَنفُسِ	-1071
▁إِسْرَا	-1072
▁وَيَوْمَ	-1073
▁الْأَرْضَ	-1074
دًى	-1075
▁عُ	-1076
خْتَ	-1077
رِهِ	-1078
قْتَ	-1079
▁سُو	-1080
▁لَيَ	-1081
▁بَصِي	-1082
▁قَدِي	-1083
▁مُّسْتَ	-1084
▁مُّبِينٌ	-1085
ئُ	-1086
طُ	-1087
قٌ	-1088
جًا	-1089
حْس	-1090
نُو	-1091
▁جِ	-1092
▁خُ	-1093
وْفَ	-1094
▁بَا	-1095
كُونُ	-1096
يِّنَ	-1097
▁الْخ	-1098
رِهِمْ	-1099
لِيمًا	-1100
▁صَالِح	-1101
▁لَكُمُ	-1102
▁لَهُمُ	-1103
تَّقُونَ	-1104
تَّقِينَ	-1105
▁الْقُرْآ	-1106
▁الْأَنْهَا	-1107
▁خَالِدِينَ	-1108
رَك	-1109
شَا	-1110
صَّ	-1111
▁ذَا	-1112
▁نُّ	-1113
ئِيلَ	-1114
عَذِّ	-1115
▁فَعَ	-1116
تِكُمْ	-1117
▁لِمَن	-1118
كَانُوا	-1119
كُونُوا	-1120
ُوهُنَّ	-1121
▁أَعْمَا	-1122
▁أَوْلِي	-1123
▁رَبُّكَ	-1124
▁النَّاسُ	-1125
▁الْحَكِي	-1126
▁عَلَيْهِم	-1127
▁بَيْنَهُمْ	-1128
خُل	-1129
لَكَ	-1130
بْحَا	-1131
سَاءَ	-1132
عْرُو	-1133
قَاتِ	-1134
مْنَا	-1135
نَافِ	-1136
هُونَ	-1137
وَكَّ	-1138
▁أَرْ	-1139
▁أَسْ	-1140
▁رَأَ	-1141
▁لِأَ	-1142
بْحَانَ	-1143
▁تُكَذِّ	-1144
▁دُونِهِ	-1145
▁عَذَابَ	-1146
▁النَّبِي	-1147
▁بِغَيْرِ	-1148
▁أَصْحَابُ	-1149
▁وَالْأَرْضَ	-1150
▁إِسْرَائِيلَ	-1151
ظِ	-1152
حًا	-1153
▁جُ	-1154
ئْسَ	-1155
رَّا	-1156
لَتْ	-1157
▁حَا	-1158
▁تَكْ	-1159
▁وَعْ	-1160
تِلْكَ	-1161
تِهِمْ	-1162
َيْنَا	-1163
▁فَلْيَ	-1164
▁لَيْسَ	-1165
▁وَقَدْ	-1166
▁قَوْمًا	-1167
▁يُحِبُّ	-1168
▁أَنزَلْنَا	-1169
▁الْأَنْهَارُ	-1170
سَى	-1171
ُمَ	-1172
عْجِ	-1173
فَىٰ	-1174
قَىٰ	-1175
نِيَ	-1176
▁اسْ	-1177
▁وَج	-1178
بْنَا	-1179
▁كَسَ	-1180
▁لِتَ	-1181
▁الرِّ	-1182
▁الطَّ	-1183
▁خَبِي	-1184
▁صِرَا	-1185
▁عَدُو	-1186
▁وَفِي	-1187
▁الصَّا	-1188
▁تَسْتَ	-1189
▁يَوْمِ	-1190
▁أَزْوَا	-1191
▁تَوَلَّ	-1192
▁الْأَوَّ	-1193
▁وَأَنتُمْ	-1194
بْتَ	-1195
دَةً	-1196
ضُوا	-1197
▁آلِ	-1198
▁ادْ	-1199
حْيِي	-1200
▁تَشْ	-1201
▁تُرْ	-1202
▁كَأَ	-1203
▁لَأَ	-1204
بُهُمْ	-1205
نِهِمْ	-1206
▁لَّهُ	-1207
▁نَصِي	-1208
▁وَمِنَ	-1209
▁أَلِيمٌ	-1210
▁لِّلْمُ	-1211
▁وَاسْتَ	-1212
▁يُؤْمِن	-1213
▁يُرِيدُ	-1214
▁الْعَلِي	-1215
▁ظَلَمُوا	-1216
▁عَذَابًا	-1217
▁مُّبِينٍ	-1218
▁وَلَهُمْ	-1219
▁الْيَوْمَ	-1220
▁لِلنَّاسِ	-1221
▁وَاتَّقُوا	-1222
▁وَكَذَٰلِكَ	-1223
▁الْمَلَائِكَ	-1224
طٍ	-1225
خَّ	-1226
طُو	-1227
▁شِ	-1228
بْعَ	-1229
عْرِ	-1230
▁هُم	-1231
نُونَ	-1232
ِّينِ	-1233
▁أَشْ	-1234
▁وَهَ	-1235
▁يَجْ	-1236
ُلْطَا	-1237
▁الْغَ	-1238
▁ضَلَا	-1239
▁لَهَا	-1240
▁بَعْضٍ	-1241
▁عَنْهُ	-1242
▁خَيْرًا	-1243
▁قَدِيرٌ	-1244
▁الْحَقِّ	-1245
▁جَنَّاتٍ	-1246
▁خَلَقْنَا	-1247
▁كَذَّبُوا	-1248
▁الْحَيَاةِ	-1249
فٍ	-1250
زِّ	-1251
▁خِ	-1252
دْخِ	-1253
رْضُ	-1254
قِبَ	-1255
لْتَ	-1256
وَّا	-1257
يِّئ	-1258
▁حَق	-1259
▁دِي	-1260
▁لَن	-1261
بَرُوا	-1262
لَّذِي	-1263
▁أَرَا	-1264
دِيهِمْ	-1265
كُرُونَ	-1266
▁بِإِذْ	-1267
▁كُنتُم	-1268
▁نِعْمَ	-1269
▁مِّنْهُ	-1270
شْرِكِينَ	-1271
▁الْعَظِي	-1272
▁صَالِحًا	-1273
▁سُبْحَانَ	-1274
▁لِّقَوْمٍ	-1275
بْصِ	-1276
رْتَ	-1277
زِيز	-1278
قُلْ	-1279
▁طَا	-1280
أَيِّ	-1281
▁تَفْ	-1282
▁مَثَ	-1283
▁أَخَا	-1284
▁تَقُو	-1285
▁كُنتَ	-1286
▁مِّثْ	-1287
▁لَقَدْ	-1288
▁أَيْمَا	-1289
▁جَاءَتْ	-1290
▁حَكِيمٌ	-1291
▁يَقُولُ	-1292
▁أَوَلَمْ	-1293
▁السَّاعَ	-1294
▁رَّبِّكَ	-1295
▁وَجَعَلَ	-1296
▁تَحْتِهَا	-1297
▁فَبِأَيِّ	-1298
▁الْعَذَابِ	-1299
هٌ	-1300
ذًا	-1301
تْنَ	-1302
ضِيَ	-1303
وْمِ	-1304
▁تَا	-1305
صِيرُ	-1306
فِينَ	-1307
▁رُسُ	-1308
▁فَيُ	-1309
▁وَحَ	-1310
▁وَوَ	-1311
▁الزَّ	-1312
▁شَهِي	-1313
▁قِيلَ	-1314
▁أَهْلِ	-1315
▁بَعْضَ	-1316
▁أَمْوَا	-1317
جْرِمِينَ	-1318
▁بِآيَاتِ	-1319
▁أَنفُسَهُمْ	-1320
▁لَعَلَّهُمْ	-1321
▁الشَّيْطَانُ	-1322
حٍ	-1323
آيَ	-1324
غِي	-1325
قُل	-1326
هًا	-1327
▁فُ	-1328
تَىٰ	-1329
تُهُ	-1330
رَكَ	-1331
▁جَز	-1332
▁ذُو	-1333
حُونَ	-1334
زِينَ	-1335
لُّوا	-1336
نَبِّ	-1337
▁بِعَ	-1338
غَيْبِ	-1339
▁الْوَ	-1340
▁فَهُمْ	-1341
▁كَلَّا	-1342
▁مَرْيَ	-1343
عْلَمُوا	-1344
▁بِكُلِّ	-1345
▁لَوْلَا	-1346
▁وَلَئِن	-1347
حْسِنِينَ	-1348
شْرِكُونَ	-1349
▁وَإِنَّا	-1350
▁وَرَحْمَ	-1351
▁أَنَّهُمْ	-1352
▁الْحَكِيمُ	-1353
حٌ	-1354
دت	-1355
أُم	-1356
خِي	-1357
سًا	-1358
ضِي	-1359
▁ان	-1360
تُمُ	-1361
دَهُ	-1362
رَةٍ	-1363
رُهُ	-1364
رْجِ	-1365
بَانِ	-1366
▁مِثْ	-1367
▁وَجْ	-1368
▁وَنُ	-1369
▁يَسْ	-1370
لُكُمْ	-1371
▁الْكُ	-1372
▁فَأَن	-1373
▁وَكُن	-1374
▁آلَاءِ	-1375
ذْكُرُوا	-1376
▁أُوتُوا	-1377
▁وَالْيَ	-1378
▁بِإِذْنِ	-1379
▁وَبَيْنَ	-1380
▁وَكَانُوا	-1381
▁إِلَيْهِمْ	-1382
ءٌ	-1383
سٌ	-1384
كِّ	-1385
رَهُ	-1386
فُسِ	-1387
مْتَ	-1388
يْثُ	-1389
ُلًا	-1390
جِبَا	-1391
رَاتِ	-1392
ضُونَ	-1393
قَابِ	-1394
▁أَشَ	-1395
▁عَمَ	-1396
▁لَنَ	-1397
ِنُونَ	-1398
▁الرُّ	-1399
▁بُيُو	-1400
▁كَبِي	-1401
▁الْآخِ	-1402
▁الْخَا	-1403
▁الْفَا	-1404
▁عَزِيز	-1405
▁يَفْعَ	-1406
▁آمَنَّا	-1407
▁الْآيَا	-1408
▁رَبِّهِ	-1409
▁عَظِيمٌ	-1410
▁لَّهُمْ	-1411
▁وَلَمَّا	-1412
▁يَأْتِيَ	-1413
▁الْقَوْمِ	-1414
▁الْمُرْسَ	-1415
▁رَبِّكُمَا	-1416
▁صَادِقِينَ	-1417
▁عَلَيْهِمُ	-1418
▁تُكَذِّبَانِ	-1419
▁الْأَوَّلِينَ	-1420
خْلِ	-1421
رِيَ	-1422
مَنِ	-1423
مْدُ	-1424
▁مُن	-1425
بَاطِ	-1426
ثُونَ	-1427
جُونَ	-1428
غَافِ	-1429
نظُرْ	-1430
▁فَهَ	-1431
▁قُلِ	-1432
تُهُمْ	-1433
▁آمَنَ	-1434
▁النِّ	-1435
▁الْحُ	-1436
▁فَرِي	-1437
بِرِينَ	-1438
لِحُونَ	-1439
▁بِأَمْ	-1440
▁تَعْبُ	-1441
▁وَأَصْ	-1442
▁وَأَوْ	-1443
▁وَيَعْ	-1444
▁يَسْمَ	-1445
▁يَأْتِي	-1446
▁اللَّيْلِ	-1447
▁رَّبِّكُمْ	-1448
▁فَإِنَّمَا	-1449
▁الْمُحْسِنِينَ	-1450
خْلَ	-1451
سُوا	-1452
مِهِ	-1453
▁امْ	-1454
ئُونَ	-1455
دُّوا	-1456
▁آبَا	-1457
▁بِبَ	-1458
▁سَمِ	-1459
▁فَنَ	-1460
▁وَيْ	-1461
آيَاتٍ	-1462
قِبَةُ	-1463
هُدَىٰ	-1464
▁آلِهَ	-1465
▁قَدَّ	-1466
▁قَرِي	-1467
تَّقُوا	-1468
فِقُونَ	-1469
نَبِّئُ	-1470
▁أَيَّا	-1471
▁حَيْثُ	-1472
▁عِلْمٍ	-1473
▁مَعَهُ	-1474
يِّئَاتِ	-1475
▁الْأَعْ	-1476
▁السَّبِي	-1477
▁سَبِيلًا	-1478
▁لَآيَاتٍ	-1479
▁قَبْلِهِمْ	-1480
▁مُّسْتَقِي	-1481
▁أَوْلِيَاءَ	-1482
▁بَيْنَهُمَا	-1483
▁لِّلَّذِينَ	-1484
عٍ	-1485
حُو	-1486
وُا	-1487
▁صُ	-1488
ئِفَ	-1489
تَهُ	-1490
مَرَ	-1491
▁تُن	-1492
لَامٌ	-1493
هَارِ	-1494
▁تَخْ	-1495
▁جِئْ	-1496
▁سَيَ	-1497
▁لِّل	-1498
▁وَفَ	-1499
▁يَلْ	-1500
دُّونَ	-1501
رِّيَّ	-1502
▁سَمِي	-1503
▁لَفِي	-1504
▁مَّعَ	-1505
خَذْنَا	-1506
فُرُونَ	-1507
▁فَهُوَ	-1508
▁يَوْمٍ	-1509
▁أَبَدًا	-1510
▁الْبَحْ	-1511
▁الْعِلْ	-1512
▁بِرَبِّ	-1513
▁قَبْلِكَ	-1514
▁مَرْيَمَ	-1515
▁وَأَمَّا	-1516
▁الْآيَاتِ	-1517
▁الرَّحِيمُ	-1518
▁الْعَذَابَ	-1519
▁الْعَلِيمُ	-1520
▁وَرَسُولَهُ	-1521
▁وَيَقُولُونَ	-1522
▁غُ	-1523
▁قِ	-1524
ذْهَ	-1525
رًّا	-1526
ضْرِ	-1527
عْنَ	-1528
فَعُ	-1529
مْسَ	-1530
بَشِّ	-1531
جَاهِ	-1532
صَدِّ	-1533
عِبَا	-1534
▁الْج	-1535
▁رَزَ	-1536
▁وَأُ	-1537
▁وَتُ	-1538
بْتُمْ	-1539
رَكُمْ	-1540
لَيْهِ	-1541
▁أَصَا	-1542
▁افْتَ	-1543
▁كَافِ	-1544
▁نَذِي	-1545
▁هُدًى	-1546
▁يَكُن	-1547
لِفُونَ	-1548
▁أَجْمَ	-1549
▁بِكُمْ	-1550
▁تِلْكَ	-1551
▁قَرْيَ	-1552
▁لِلْمُ	-1553
▁بَصِيرٌ	-1554
▁ضَلَالٍ	-1555
▁فَقَالَ	-1556
▁وَالشَّ	-1557
▁آيَاتِهِ	-1558
▁الدِّينِ	-1559
▁قَوْمِهِ	-1560
ذَكَّرُونَ	-1561
▁وَلِلَّهِ	-1562
▁الْجَنَّةِ	-1563
▁الْإِنسَانَ	-1564
▁الْإِنسَانُ	-1565
جٍ	-1566
غِ	-1567
يِ	-1568
▁دُ	-1569
جْزَ	-1570
لِكُ	-1571
▁سَو	-1572
▁شَا	-1573
حَاقَ	-1574
ذِّكْ	-1575
لَهَا	-1576
ُّورِ	-1577
▁آمِن	-1578
▁بِمَ	-1579
▁بِمُ	-1580
▁تَجِ	-1581
▁لَتَ	-1582
▁لِنَ	-1583
▁مُلْ	-1584
▁يَجِ	-1585
بَهُمْ	-1586
خَذُوا	-1587
▁إِذًا	-1588
▁الْحِ	-1589
▁عِندِ	-1590
▁مُّسَ	-1591
جَعُونَ	-1592
▁أَنتُم	-1593
▁فِتْنَ	-1594
▁قَبْلَ	-1595
▁قَوْمٌ	-1596
▁لَمَّا	-1597
▁بِالْمَ	-1598
▁سُلْطَا	-1599
▁وَأُولَ	-1600
▁الزَّكَا	-1601
▁فَسَوْفَ	-1602
▁فَضْلِهِ	-1603
▁مِّنكُمْ	-1604
▁الْحَمْدُ	-1605
▁الْقَوْمَ	-1606
▁ذَٰلِكُمْ	-1607
▁عَاقِبَةُ	-1608
ءُو	-1609
طًا	-1610
رَتْ	-1611
▁تُو	-1612
▁فَآ	-1613
جْزِي	-1614
دُورِ	-1615
رَبِّ	-1616
عَامِ	-1617
هَارَ	-1618
▁أَغْ	-1619
▁بَشَ	-1620
▁فَقَ	-1621
▁لَمَ	-1622
▁وَصَ	-1623
تَيْنِ	-1624
تُكُمْ	-1625
خُلُوا	-1626
▁جُنَا	-1627
▁حَرَّ	-1628
▁لَئِن	-1629
▁مَاءً	-1630
▁وُجُو	-1631
▁يَنظُ	-1632
طِيعُوا	-1633
عُرُونَ	-1634
▁آيَاتُ	-1635
▁الْمَا	-1636
▁الْمُن	-1637
▁بِهِمْ	-1638
▁فَوْقَ	-1639
▁نَفْسٍ	-1640
▁أُمَّةٍ	-1641
▁إِلَيَّ	-1642
▁وَالْبَ	-1643
سْأَلُونَ	-1644
فْلِحُونَ	-1645
▁أَكْثَرَ	-1646
▁ذُرِّيَّ	-1647
▁اللَّيْلَ	-1648
▁عَلَيْكُم	-1649
▁يَدْعُونَ	-1650
▁أَيْدِيهِمْ	-1651
▁قُلُوبِهِمْ	-1652
▁مُّؤْمِنِينَ	-1653
ثَّ	-1654
رَى	-1655
ظَا	-1656
ًّى	-1657
حَىٰ	-1658
رَةِ	-1659
سَّا	-1660
سْرِ	-1661
طَّا	-1662
غُوا	-1663
وَيْ	-1664
َاتٍ	-1665
▁قُو	-1666
بْصَا	-1667
ذُنُو	-1668
نَزِّ	-1669
ِيَّا	-1670
▁بَلَ	-1671
▁حَسَ	-1672
▁رِزْ	-1673
▁فَجَ	-1674
▁وَرُ	-1675
دَيْهِ	-1676
كُلُوا	-1677
▁طَيِّ	-1678
▁ظَالِ	-1679
▁كَرِي	-1680
▁لَّوْ	-1681
▁مَتَا	-1682
▁مِمَّ	-1683
▁مَّنْ	-1684
تَرُونَ	-1685
حَيْنَا	-1686
▁آيَاتِ	-1687
▁أَحْسَ	-1688
▁إِيمَا	-1689
▁فَإِنْ	-1690
▁فِيمَا	-1691
▁قَوْمَ	-1692
▁كَلِمَ	-1693
▁وَأَهْ	-1694
عْبُدُوا	-1695
▁عَنْهَا	-1696
▁وَالسَّ	-1697
▁وَالْقَ	-1698
▁يَرَوْا	-1699
▁الْجِبَا	-1700
▁الْحَقَّ	-1701
▁الْخَاسِ	-1702
بَيِّنَاتِ	-1703
▁إِنَّكُمْ	-1704
▁وَإِنَّهُ	-1705
▁وَلَوْلَا	-1706
▁الزَّكَاةَ	-1707
▁خَالِدُونَ	-1708
▁أَهْلَكْنَا	-1709
▁بِأَنَّهُمْ	-1710
▁تَعْقِلُونَ	-1711
▁وَرَسُولِهِ	-1712
▁الظَّالِمُونَ	-1713
▁الْمُرْسَلِينَ	-1714
▁الْمُشْرِكِينَ	-1715
▁بِالْبَيِّنَاتِ	-1716
جٌ	-1717
يُن	-1718
بَىٰ	-1719
ظْلِ	-1720
فُلْ	-1721
قْبَ	-1722
قْدِ	-1723
مِلَ	-1724
▁أُم	-1725
▁رَا	-1726
▁عِي	-1727
تَنَا	-1728
دِنَا	-1729
سَاءِ	-1730
فْنَا	-1731
لِيمٍ	-1732
لَّمَ	-1733
مَانَ	-1734
نَّكَ	-1735
يَّنَ	-1736
▁آتَا	-1737
▁أُخْ	-1738
▁بَأْ	-1739
▁بِيَ	-1740
▁خَوْ	-1741
▁عَبْ	-1742
▁فَأْ	-1743
▁يُغْ	-1744
تْلَىٰ	-1745
عْلَمَ	-1746
يْتُمْ	-1747
▁آيَةً	-1748
▁حِسَا	-1749
▁وَهُم	-1750
▁أَرَأَ	-1751
▁قَوْمٍ	-1752
▁وَلَهُ	-1753
▁يَخْرُ	-1754
▁أَنَّهُ	-1755
▁تَكُونَ	-1756
▁خَبِيرٌ	-1757
▁عَزِيزٌ	-1758
▁قَالَتْ	-1759
▁كَانَتْ	-1760
▁وَأَنزَ	-1761
▁وَعَلَى	-1762
▁يُحْيِي	-1763
▁الْآخِرِ	-1764
▁الْجَحِي	-1765
▁الْحَرَا	-1766
▁قَبْلِهِ	-1767
▁الْأَرْضُ	-1768
▁رَبُّكُمْ	-1769
▁الْمَصِيرُ	-1770
▁أَجْمَعِينَ	-1771
▁أَنفُسِهِمْ	-1772
▁الْمُتَّقِينَ	-1773
وا	-1774
▁ص	-1775
تَكَ	-1776
جُوا	-1777
خَلَ	-1778
سْجِ	-1779
عِدُ	-1780
كْمَ	-1781
هْزِ	-1782
َاءٌ	-1783
َّةً	-1784
تُمُو	-1785
جْعَل	-1786
خَّرَ	-1787
خْوَا	-1788
رَاكَ	-1789
رَكَا	-1790
سَبِّ	-1791
غُونَ	-1792
كَاذِ	-1793
لَنَا	-1794
مِينِ	-1795
نِينَ	-1796
نَّهُ	-1797
يِّئَ	-1798
ِّنَا	-1799
▁أَفْ	-1800
▁بِحَ	-1801
▁تَبَ	-1802
▁تَبْ	-1803
▁تَسْ	-1804
▁فَرَ	-1805
▁لَبِ	-1806
▁لَّن	-1807
▁وَمِ	-1808
عَلُوا	-1809
لَيْسَ	-1810
نِكُمْ	-1811
▁الصُّ	-1812
▁بَعِي	-1813
▁حَقَّ	-1814
▁حَمِي	-1815
▁كَالْ	-1816
▁كُلٌّ	-1817
▁مَسَّ	-1818
▁نُوحٍ	-1819
▁يَسِي	-1820
دَيْنَا	-1821
عَدُونَ	-1822
قِيمُوا	-1823
كُلُونَ	-1824
▁أَمْرُ	-1825
▁بَلَىٰ	-1826
▁فَأَصْ	-1827
▁فَهَلْ	-1828
▁وَلِيَ	-1829
▁أَجْرًا	-1830
▁تَتَّبِ	-1831
▁نَذِيرٌ	-1832
▁وَجَاءَ	-1833
بْصِرُونَ	-1834
▁الْمُبِي	-1835
▁عَظِيمًا	-1836
▁عَلِيمًا	-1837
▁فَأَمَّا	-1838
▁وَيَسْتَ	-1839
▁آيَاتِنَا	-1840
▁عِبَادِهِ	-1841
▁وَمِنْهُم	-1842
▁الْعَذَابُ	-1843
▁الْقُرْآنَ	-1844
▁الْمُنَافِ	-1845
▁وَإِلَيْهِ	-1846
▁يَعْقِلُونَ	-1847
▁الْمُؤْمِنُونَ	-1848
جْز	-1849
دُن	-1850
زُو	-1851
ظُن	-1852
هَد	-1853
بَرُ	-1854
ثُوا	-1855
خَرَ	-1856
رْشِ	-1857
شَّا	-1858
شْتَ	-1859
ضْلِ	-1860
طْمَ	-1861
لْتُ	-1862
مَىٰ	-1863
مًّى	-1864
وْنُ	-1865
يْفَ	-1866
َّةٍ	-1867
▁لُو	-1868
▁وَّ	-1869
جَادِ	-1870
ذُونَ	-1871
ضِلُّ	-1872
لُنَا	-1873
نتُمْ	-1874
هْدِي	-1875
▁أَأَ	-1876
▁أَقْ	-1877
▁الْآ	-1878
▁تَرْ	-1879
▁حَرَ	-1880
▁سَأَ	-1881
▁سَبَ	-1882
▁عَرَ	-1883
▁فَوَ	-1884
▁وَمُ	-1885
▁يَغْ	-1886
إِيمَا	-1887
خْرَجَ	-1888
خْرِجُ	-1889
فْسِهِ	-1890
▁جَنَّ	-1891
▁لِّيَ	-1892
▁وَالص	-1893
▁وَلَن	-1894
▁يُوسُ	-1895
عْرُوفِ	-1896
▁لَمِنَ	-1897
▁لِّمَا	-1898
▁مُسْتَ	-1899
▁الْفُلْ	-1900
▁بِالْعَ	-1901
▁كَذَّبَ	-1902
▁وَأَنَا	-1903
سْلِمِينَ	-1904
▁النَّارُ	-1905
▁مِّنْهَا	-1906
كَافِرُونَ	-1907
▁تَكُونُوا	-1908
▁مُّسَمًّى	-1909
▁اتَّخَذُوا	-1910
▁وَآتَيْنَا	-1911
▁يُنفِقُونَ	-1912
▁وَالْيَوْمِ	-1913
▁يَشْعُرُونَ	-1914
▁بِالْآخِرَةِ	-1915
▁الْمَلَائِكَةُ	-1916
كٌ	-1917
أُن	-1918
ضًا	-1919
طَه	-1920
مِّ	-1921
حْسَ	-1922
دَمَ	-1923
رْتُ	-1924
شَأْ	-1925
قْسِ	-1926
هُوا	-1927
َاتُ	-1928
▁اثْ	-1929
▁الض	-1930
▁رَج	-1931
آيَةً	-1932
بَاءَ	-1933
رُّوا	-1934
كَلِّ	-1935
مِيعُ	-1936
نفُسِ	-1937
هَادَ	-1938
▁أَنِ	-1939
▁بَغْ	-1940
▁تَتَ	-1941
▁تَقْ	-1942
▁لِتُ	-1943
▁وَرِ	-1944
▁وَزَ	-1945
▁وَقُ	-1946
▁يَصْ	-1947
جْعَلْ	-1948
خْتَلَ	-1949
صْبِرْ	-1950
▁أَوَّ	-1951
▁النُّ	-1952
▁فَلَن	-1953
▁مَرَّ	-1954
▁نَزَّ	-1955
جِعُونَ	-1956
▁خَيْرُ	-1957
▁غَيْرُ	-1958
▁فَعَلَ	-1959
▁وَأَلْ	-1960
▁وَإِسْ	-1961
كْبَرُوا	-1962
▁أَحَدًا	-1963
▁أَخَافُ	-1964
▁أَرَادَ	-1965
▁التَّوْ	-1966
▁الذِّكْ	-1967
▁الْخَيْ	-1968
▁الْمُلْ	-1969
▁امْرَأَ	-1970
▁رَسُولٌ	-1971
▁سَمِيعٌ	-1972
▁عَدُوٌّ	-1973
▁لَآيَةً	-1974
▁نَجْزِي	-1975
▁وَرَبُّ	-1976
▁الْفَاسِ	-1977
▁رَحْمَةً	-1978
▁شَهِيدًا	-1979
▁عَمِلُوا	-1980
▁غَفُورًا	-1981
▁فَأَخَذَ	-1982
▁وَكَفَىٰ	-1983
كَذِّبِينَ	-1984
▁الْهُدَىٰ	-1985
▁تَدْعُونَ	-1986
▁السَّبِيلِ	-1987
▁تَعْبُدُونَ	-1988
▁يَسْمَعُونَ	-1989
▁مُّسْتَقِيمٍ	-1990
▁بِالْمَعْرُوفِ	-1991
خُو	-1992
دَى	-1993
فِظ	-1994
▁زُ	-1995
▁ظُ	-1996
تِكَ	-1997
جْتَ	-1998
رَةُ	-1999
سِيَ	-2000
ضَىٰ	-2001
عْضٍ	-2002
مَتْ	-2003
مُهُ	-2004
هِمُ	-2005
▁حِي	-2006
▁ذِي	-2007
▁مِي	-2008
بَابِ	-2009
رَاءَ	-2010
رِيدُ	-2011
قَوْا	-2012
لُهَا	-2013
َيْنِ	-2014
▁بِكَ	-2015
▁تُؤْ	-2016
▁تُبْ	-2017
▁صَدَ	-2018
▁عَدْ	-2019
▁لَعَ	-2020
▁مَنِ	-2021
ئِهِمْ	-2022
بِيًّا	-2023
فِقُوا	-2024
هَدُوا	-2025
▁الْإِ	-2026
▁تَكُن	-2027
▁ثَلَا	-2028
▁وَكُل	-2029
سِبُونَ	-2030
▁الْقَا	-2031
▁فَقُلْ	-2032
▁مُلْكُ	-2033
▁نَارًا	-2034
▁وَإِنْ	-2035
▁وَلْيَ	-2036
▁يَتَفَ	-2037
▁يَخْلُ	-2038
▁الْأَلْ	-2039
▁الْمَلَ	-2040
▁بِالْمُ	-2041
▁حَرَّمَ	-2042
▁سَلَامٌ	-2043
▁صِرَاطٍ	-2044
▁عِندَهُ	-2045
▁قَوْلًا	-2046
▁يَتَّخِ	-2047
ظْلَمُونَ	-2048
▁أَنَّمَا	-2049
▁الْآخِرَ	-2050
▁بَعْدِهِ	-2051
▁قَرْيَةٍ	-2052
▁إِلَيْنَا	-2053
▁الْعَرْشِ	-2054
▁الْغَيْبِ	-2055
▁إِلَيْكُمْ	-2056
▁السَّمِيعُ	-2057
▁الْعَظِيمِ	-2058
▁بَعْضُهُمْ	-2059
▁تَتَّقُونَ	-2060
▁تَوَلَّوْا	-2061
▁فِرْعَوْنُ	-2062
▁يَنظُرُونَ	-2063
▁تَشْكُرُونَ	-2064
▁تُرْجَعُونَ	-2065
▁يُشْرِكُونَ	-2066
▁الشَّيْطَانِ	-2067
▁الصَّالِحِينَ	-2068
▁الْمُجْرِمِينَ	-2069
ؤَ	-2070
تِّ	-2071
دتّ	-2072
رٌّ	-2073
وِّ	-2074
ُلٌ	-2075
ُمُ	-2076
بَّا	-2077
ثَىٰ	-2078
خَيْ	-2079
دَتْ	-2080
دُهُ	-2081
طُوا	-2082
عِيَ	-2083
كَرَ	-2084
مْسِ	-2085
نَهُ	-2086
ُلُو	-2087
ِيَا	-2088
أْوَا	-2089
جْنَا	-2090
صِيبَ	-2091
صِينَ	-2092
▁أَظْ	-2093
▁تَمَ	-2094
▁دَخَ	-2095
▁رَيْ	-2096
▁زَوْ	-2097
▁سَنَ	-2098
▁عَلِ	-2099
▁فَلِ	-2100
▁لَمُ	-2101
▁لِبَ	-2102
▁وَضَ	-2103
▁وَغَ	-2104
▁وَهُ	-2105
بُّونَ	-2106
رْهُمْ	-2107
ظَّالِ	-2108
لَكُمْ	-2109
▁أَتَا	-2110
▁اثْنَ	-2111
▁السُّ	-2112
▁السِّ	-2113
▁الْمِ	-2114
▁حَدِي	-2115
▁ضَلَّ	-2116
▁فَمِن	-2117
▁قَائِ	-2118
▁وَكِي	-2119
▁يَنصُ	-2120
▁أَجْرَ	-2121
▁الدَّا	-2122
▁الرَّا	-2123
▁الرِّي	-2124
▁رَّسُو	-2125
▁كَفَرَ	-2126
▁لَّدُن	-2127
▁مَاذَا	-2128
▁وَأَمْ	-2129
▁وَعَدَ	-2130
▁وَعْدَ	-2131
▁يَظْلِ	-2132
▁يَعْبُ	-2133
ؤْمِنُوا	-2134
جَّيْنَا	-2135
قَوْمِهِ	-2136
▁أَبْنَا	-2137
▁أَشَدُّ	-2138
▁الرُّسُ	-2139
▁بِأَنَّ	-2140
▁حَسَنًا	-2141
▁رَبَّهُ	-2142
▁عَظِيمٍ	-2143
▁عَنكُمْ	-2144
▁كِتَابٌ	-2145
▁يَكُونُ	-2146
سْلِمُونَ	-2147
فْسِدِينَ	-2148
▁أَيَّامٍ	-2149
▁يُؤْمِنُ	-2150
▁جَهَنَّمُ	-2151
▁فَقَالُوا	-2152
▁وَاحِدَةً	-2153
▁الْجَنَّةَ	-2154
▁الْعَزِيزِ	-2155
▁بَيْنَكُمْ	-2156
▁عَلَيْكُمُ	-2157
▁يَتَّقُونَ	-2158
▁وَاعْلَمُوا	-2159
ضٌ	-2160
هٍ	-2161
ثًا	-2162
فِّ	-2163
نُّ	-2164
ِنُ	-2165
بُهُ	-2166
بِّي	-2167
حِشَ	-2168
ذِرَ	-2169
رَبَ	-2170
رُّو	-2171
شْرَ	-2172
صْطَ	-2173
عَةً	-2174
عَىٰ	-2175
غْرَ	-2176
فُرْ	-2177
قِسْ	-2178
كُفْ	-2179
لَةً	-2180
لَةٍ	-2181
نْهَ	-2182
يْسَ	-2183
▁آتَ	-2184
بُوهُ	-2185
بَّةٍ	-2186
تْلُو	-2187
ثَاقَ	-2188
ثْنَا	-2189
ذِبًا	-2190
رِنَا	-2191
سُونَ	-2192
عَدَّ	-2193
لُوهُ	-2194
يْتُم	-2195
▁أَخْ	-2196
▁جَاء	-2197
▁دَرَ	-2198
▁فَان	-2199
▁فَصَ	-2200
▁لِمَ	-2201
▁وَعِ	-2202
▁يَضُ	-2203
▁يُعْ	-2204
عُكُمْ	-2205
عْلَمُ	-2206
لُّونَ	-2207
ُمَاتِ	-2208
▁تُرَا	-2209
▁شُرَك	-2210
▁كُنتُ	-2211
▁مَّعْ	-2212
أُولَىٰ	-2213
بَيِّنُ	-2214
خَرِينَ	-2215
ذُوقُوا	-2216
قُولُوا	-2217
▁آبَاءَ	-2218
▁أَنَّا	-2219
▁أَيْنَ	-2220
▁الْأُم	-2221
▁بَيِّن	-2222
▁حَسَنَ	-2223
▁حَقًّا	-2224
▁لَهُوَ	-2225
▁مِنَّا	-2226
▁يَعْمَ	-2227
▁يَفْقَ	-2228
▁يَوْمُ	-2229
طِيعُونَ	-2230
▁أَمْرًا	-2231
▁تَتَّخِ	-2232
▁مَثَلًا	-2233
▁وَإِلَى	-2234
▁وَاذْكُ	-2235
▁يَكُونَ	-2236
▁يَنفَعُ	-2237
عَلَّكُمْ	-2238
▁أَكْثَرُ	-2239
▁اتَّخَذَ	-2240
▁الْحَمِي	-2241
▁رَبُّنَا	-2242
▁رَسُولًا	-2243
▁فَأَصْبَ	-2244
▁كَبِيرًا	-2245
▁وَالْإِن	-2246
▁يَدَيْهِ	-2247
نَبِّئُكُم	-2248
▁اعْبُدُوا	-2249
▁رَزَقْنَا	-2250
▁رَّحِيمًا	-2251
ظَّالِمِينَ	-2252
▁الرَّسُولَ	-2253
▁النَّبِيُّ	-2254
▁الْجَحِيمِ	-2255
▁فَاتَّقُوا	-2256
▁يَفْتَرُونَ	-2257
▁تَذَكَّرُونَ	-2258
▁أَعْمَالَهُمْ	-2259
▁الصَّادِقِينَ	-2260
▁الْكَافِرُونَ	-2261
طٌ	-2262
صِّ	-2263
كًا	-2264
وُو	-2265
▁ضُ	-2266
بَرَ	-2267
بِهِ	-2268
دًّا	-2269
دْيَ	-2270
سْوَ	-2271
فَعَ	-2272
قَتْ	-2273
لِيَ	-2274
وْزُ	-2275
ُمِي	-2276
ِنِّ	-2277
▁بَل	-2278
▁رِّ	-2279
▁زَا	-2280
ئِينَ	-2281
بَاتِ	-2282
بَنَّ	-2283
عَلِّ	-2284
عُوهُ	-2285
قَرَّ	-2286
مُودَ	-2287
وَاءَ	-2288
وَفَّ	-2289
▁أَإِ	-2290
▁أَوِ	-2291
▁إِحْ	-2292
▁بِهَ	-2293
▁حَوْ	-2294
▁قَتَ	-2295
▁مَكْ	-2296
▁مُتَ	-2297
▁نَصْ	-2298
▁نَّا	-2299
▁وَطَ	-2300
▁وَظَ	-2301
ؤْمِنَ	-2302
بَعُوا	-2303
بِهِمْ	-2304
تَهُمْ	-2305
تِلُوا	-2306
جْزِيَ	-2307
رُّونَ	-2308
رْبَىٰ	-2309
رْتُمْ	-2310
سْنَىٰ	-2311
قِهِمْ	-2312
لَكَتْ	-2313
لْتُمْ	-2314
▁الثَّ	-2315
▁الظُّ	-2316
▁مَّوْ	-2317
▁وَبِا	-2318
▁وَقِي	-2319
▁وَهَا	-2320
▁يَخَا	-2321
رَكْنَا	-2322
▁آبَاؤُ	-2323
▁أَجَلٍ	-2324
▁أَحَدٍ	-2325
▁أَنْعَ	-2326
▁أُرْسِ	-2327
▁أُولِي	-2328
▁الْوَا	-2329
▁عَسَىٰ	-2330
▁فَلَوْ	-2331
▁وَأَكْ	-2332
▁وَجْهَ	-2333
▁يَخْتَ	-2334
▁يَغْفِ	-2335
▁أَصَابَ	-2336
▁أَوَّلَ	-2337
▁جُنَاحَ	-2338
▁عَنْهُم	-2339
▁فَكَذَّ	-2340
▁لِرَبِّ	-2341
▁مُؤْمِن	-2342
▁مِّنَّا	-2343
▁يَوْمًا	-2344
جْرِمُونَ	-2345
هْزِئُونَ	-2346
▁أَحْسَنَ	-2347
▁أَحْسَنُ	-2348
▁أَكْبَرُ	-2349
▁أَيْدِيَ	-2350
▁الْحِسَا	-2351
▁تُتْلَىٰ	-2352
▁حَكِيمًا	-2353
▁فَكَيْفَ	-2354
▁كَسَبَتْ	-2355
▁وَعَلَىٰ	-2356
▁وَكُنَّا	-2357
▁أَهْوَاءَ	-2358
▁الْفَوْزُ	-2359
▁الْقُرَىٰ	-2360
▁الْمَلَأُ	-2361
▁بِالْقِسْ	-2362
▁سَمِعْنَا	-2363
▁الْحَرَامِ	-2364
▁الْعَظِيمُ	-2365
▁الْعِقَابِ	-2366
▁الْمَوْتَىٰ	-2367
▁يَرْجِعُونَ	-2368
▁الْأَلْبَابِ	-2369
▁لِلْكَافِرِينَ	-2370
جِّ	-2371
عِن	-2372
▁وِ	-2373
حْرٌ	-2374
حْشَ	-2375
دَكَ	-2376
ذِبَ	-2377
كَرِ	-2378
كْبِ	-2379
لَةَ	-2380
لِّي	-2381
مَثَ	-2382
مُرُ	-2383
يْلِ	-2384
▁ائْ	-2385
▁شَك	-2386
▁وَي	-2387
بِيرُ	-2388
بِّحْ	-2389
خِيهِ	-2390
رَابِ	-2391
رُوهُ	-2392
عُونِ	-2393
قُوبَ	-2394
كُنَّ	-2395
لُهُم	-2396
لْتُم	-2397
ُوهَا	-2398
▁أَضَ	-2399
▁تَمْ	-2400
▁حَسْ	-2401
▁شِئْ	-2402
▁فَذَ	-2403
▁كَتَ	-2404
▁مَثْ	-2405
▁مَلَ	-2406
▁وَثَ	-2407
▁وَشَ	-2408
ئِفَةٌ	-2409
جْعَلَ	-2410
خْرِجَ	-2411
دَهُمْ	-2412
رَكُوا	-2413
لِهِمْ	-2414
▁ابْنَ	-2415
▁اهْتَ	-2416
▁حِينٍ	-2417
▁عَالِ	-2418
▁فَاسِ	-2419
▁وَقُل	-2420
تَّبِعُ	-2421
زَنُونَ	-2422
صَرُونَ	-2423
لِكُونَ	-2424
نظُرُوا	-2425
▁أَنِّي	-2426
▁الْغَا	-2427
▁بَشَرٌ	-2428
▁بِحَمْ	-2429
▁رَيْبَ	-2430
▁فَأَوْ	-2431
▁فَمَنِ	-2432
▁فَمَنْ	-2433
▁قَوْمُ	-2434
▁كُلُوا	-2435
▁مُوسَى	-2436
▁نَفْسٌ	-2437
▁وَأَنْ	-2438
▁وَرُسُ	-2439
▁وَلِتَ	-2440
▁وَيَأْ	-2441
▁يَهْتَ	-2442
غْفِرَةٌ	-2443
▁أَفَمَن	-2444
▁أَنَّىٰ	-2445
▁أَوْلَا	-2446
▁بَيِّنَ	-2447
▁جَزَاءً	-2448
▁شَدِيدُ	-2449
▁عَذَابِ	-2450
▁عَلَيَّ	-2451
▁قُلُوبُ	-2452
▁كَذِبًا	-2453
▁كِتَابٍ	-2454
▁لَّقَدْ	-2455
▁مِنْهُم	-2456
▁وَالْحِ	-2457
▁وَقِيلَ	-2458
▁وَكَذَّ	-2459
▁وَهُدًى	-2460
▁يُعَذِّ	-2461
▁يُقَاتِ	-2462
ؤْمِنَاتِ	-2463
▁أَظْلَمُ	-2464
▁أُخْرَىٰ	-2465
▁إِنَّهَا	-2466
▁اتَّبَعَ	-2467
▁الطَّيِّ	-2468
▁الْجِنِّ	-2469
▁بَصِيرًا	-2470
▁جَاءَهُم	-2471
▁رَبِّنَا	-2472
▁كَسَبُوا	-2473
▁لِقَوْمٍ	-2474
▁مَلَكَتْ	-2475
▁وَالصَّا	-2476
▁وَبِئْسَ	-2477
▁وَلَكُمْ	-2478
▁وَنَحْنُ	-2479
▁الْمَسْجِ	-2480
▁تَقُولُوا	-2481
▁جَاءَهُمْ	-2482
▁رَبَّكُمْ	-2483
▁فَإِنَّهُ	-2484
▁وَالَّذِي	-2485
سْأَلُونَكَ	-2486
▁التَّوْرَا	-2487
▁الرَّسُولِ	-2488
▁السَّمَاءُ	-2489
▁الصُّدُورِ	-2490
▁الْحَيَاةُ	-2491
▁الْمُبِينُ	-2492
▁رَّبِّهِمْ	-2493
▁سَيِّئَاتِ	-2494
▁قَبْلِكُمْ	-2495
▁كَافِرُونَ	-2496
▁قُلُوبُهُمْ	-2497
▁يُظْلَمُونَ	-2498
▁أَكْثَرَهُمْ	-2499
▁إِبْرَاهِيمُ	-2500
▁وَالْآخِرَةِ	-2501
▁يَسْتَطِيعُونَ	-2502
▁الْمُنَافِقِينَ	-2503
ثٍ	-2504
ؤَا	-2505
زُّ	-2506
▁تِ	-2507
▁ثُ	-2508
بَةً	-2509
بِعَ	-2510
تَةً	-2511
جِّي	-2512
خْرُ	-2513
دتُّ	-2514
زُقُ	-2515
طْفَ	-2516
عَةٌ	-2517
قِيَ	-2518
كِنِ	-2519
لِحُ	-2520
هْدِ	-2521
▁الط	-2522
▁رُس	-2523
تِينَ	-2524
رَائِ	-2525
ظُنُّ	-2526
لَنَّ	-2527
لِمَا	-2528
وَابَ	-2529
▁أَرَ	-2530
▁أَمَ	-2531
▁إِثْ	-2532
▁بَعَ	-2533
▁بَلِ	-2534
▁تُخْ	-2535
▁ذَهَ	-2536
▁عَيْ	-2537
▁فَتُ	-2538
▁مُّو	-2539
▁وَسُ	-2540
▁وَنِ	-2541
▁يَصِ	-2542
▁يَقْ	-2543
▁يَكُ	-2544
▁يُسْ	-2545
▁يُفْ	-2546
تْهُمُ	-2547
جْعَلُ	-2548
رْضَىٰ	-2549
سُهُمْ	-2550
سْأَلُ	-2551
شْرَىٰ	-2552
نَهُمْ	-2553
▁أَنفَ	-2554
▁الْبِ	-2555
▁الْقِ	-2556
▁خِلَا	-2557
▁دِيَا	-2558
▁شَكٍّ	-2559
▁شُهَد	-2560
▁لِمَا	-2561
▁هَدَا	-2562
▁يَتُو	-2563
▁يُحَا	-2564
بَارَكَ	-2565
تُمُونَ	-2566
جَيْنَا	-2567
قَامُوا	-2568
لَّيْلِ	-2569
مَرَاتِ	-2570
▁الشَّا	-2571
▁الظُّل	-2572
▁تَرَىٰ	-2573
▁تَقْتُ	-2574
▁تَنزِي	-2575
▁خَوْفٌ	-2576
▁خَيْرٍ	-2577
▁دَاوُو	-2578
▁فَمِنْ	-2579
▁نَفْسِ	-2580
▁وَيْلٌ	-2581
بْتَغُوا	-2582
جْزَوْنَ	-2583
▁أَبْصَا	-2584
▁أَلِيمٍ	-2585
▁أُمَّةً	-2586
▁أُوتِيَ	-2587
▁الْأَسْ	-2588
▁الْخَلْ	-2589
▁الْغَيْ	-2590
▁بِعَذَا	-2591
▁ثَلَاثَ	-2592
▁جَزَاءُ	-2593
▁شُرَكَا	-2594
▁فِيهِمْ	-2595
▁قُلْنَا	-2596
▁نَفْسًا	-2597
▁وَأَنتَ	-2598
▁يَدْعُو	-2599
▁يُكَذِّ	-2600
▁يُوحَىٰ	-2601
▁يُوسُفَ	-2602
عْرِضُونَ	-2603
لَائِكَةِ	-2604
لَيْمَانَ	-2605
هْتَدُونَ	-2606
وَالِهِمْ	-2607
▁أَلِيمًا	-2608
▁اتَّقُوا	-2609
▁رَّبِّهِ	-2610
▁لِّلَّهِ	-2611
▁مَعَكُمْ	-2612
▁وَإِنِّي	-2613
▁أَخَذْنَا	-2614
▁أَيْمَانُ	-2615
▁افْتَرَىٰ	-2616
▁الْبَحْرِ	-2617
▁الْمَوْتِ	-2618
▁الْمُسْتَ	-2619
▁قَدَّمَتْ	-2620
▁كَذَّبَتْ	-2621
▁وَجَدْنَا	-2622
▁يَتَوَلَّ	-2623
▁يَسْتَوِي	-2624
▁أَزْوَاجًا	-2625
▁النِّسَاءِ	-2626
▁الْأُولَىٰ	-2627
▁الْحِسَابِ	-2628
▁الْمَدِينَ	-2629
▁بَعْدِهِمْ	-2630
▁بَيِّنَاتٍ	-2631
▁أَنفُسَكُمْ	-2632
▁أَنفُسِكُمْ	-2633
▁أَوْحَيْنَا	-2634
▁بِالْقِسْطِ	-2635
▁سُبْحَانَهُ	-2636
▁وَأَطِيعُوا	-2637
▁وَرَسُولُهُ	-2638
▁يَكْسِبُونَ	-2639
▁أَنزَلْنَاهُ	-2640
▁يَسْتَهْزِئُونَ	-2641
تِغ	-2642
زًا	-2643
بَهُ	-2644
تِبَ	-2645
خْشَ	-2646
دَةٌ	-2647
دَةٍ	-2648
رْحَ	-2649
شَيْ	-2650
صْرِ	-2651
ضَيْ	-2652
غَىٰ	-2653
قَلَ	-2654
كْتُ	-2655
لَحَ	-2656
لُوَ	-2657
مِثْ	-2658
نُهُ	-2659
نِهِ	-2660
▁بِي	-2661
▁نِّ	-2662
▁يَش	-2663
حِلَّ	-2664
ذَاتِ	-2665
رَاهُ	-2666
صُونَ	-2667
ضْوَا	-2668
غَالِ	-2669
قَاءَ	-2670
مَّنْ	-2671
نَاتِ	-2672
نَزَّ	-2673
نَّىٰ	-2674
هَاجِ	-2675
ُورًا	-2676
▁إِنِ	-2677
▁بِقَ	-2678
▁تُحِ	-2679
▁حَمَ	-2680
▁خَسِ	-2681
▁سَبْ	-2682
▁فَطَ	-2683
▁قَلْ	-2684
▁لَنُ	-2685
▁نَبَ	-2686
▁وَجِ	-2687
▁وَذَ	-2688
تُونِي	-2689
رَّسُو	-2690
فُورًا	-2691
فْتُمْ	-2692
قْوَىٰ	-2693
كْمَةَ	-2694
لِّينَ	-2695
مَثَلِ	-2696
هِهِمْ	-2697
هْلِكَ	-2698
▁آدَمَ	-2699
▁أَسَا	-2700
▁اشْتَ	-2701
▁الْبُ	-2702
▁حَقٌّ	-2703
▁حُدُو	-2704
▁حِينَ	-2705
▁دِينَ	-2706
▁رِجَا	-2707
▁فَادْ	-2708
▁قُرْآ	-2709
▁لُوطٍ	-2710
▁مُّتَ	-2711
▁نَّفْ	-2712
▁وَأُو	-2713
▁وَابْ	-2714
▁وَاسِ	-2715
بَيِّنَ	-2716
تَامَىٰ	-2717
صَارَىٰ	-2718
قِنُونَ	-2719
كِرِينَ	-2720
▁أَحَدٌ	-2721
▁أَخَذَ	-2722
▁أَعْبُ	-2723
▁أَفَأَ	-2724
▁أُولُو	-2725
▁إِيَّا	-2726
▁اللَّا	-2727
▁خَلَتْ	-2728
▁رَّبُّ	-2729
▁سَبْعَ	-2730
▁فَأَلْ	-2731
▁فَانتَ	-2732
▁كُتِبَ	-2733
▁لِّمَن	-2734
▁مَرْجِ	-2735
▁وَقُلْ	-2736
▁يَخْشَ	-2737
▁يُضْلِ	-2738
إِيمَانِ	-2739
صَدِّقًا	-2740
▁آلِهَةً	-2741
▁اخْتَلَ	-2742
▁الرِّزْ	-2743
▁الْأَحْ	-2744
▁عَذَابٍ	-2745
▁فَاعْبُ	-2746
▁فَكَانَ	-2747
▁وَلَدًا	-2748
▁يُجَادِ	-2749
▁يُسَبِّ	-2750
▁يُغْنِي	-2751
▁أَلَيْسَ	-2752
▁الدِّينَ	-2753
▁الشَّيَا	-2754
▁الْأُمُو	-2755
▁الْجَاهِ	-2756
▁الْكَاذِ	-2757
▁بَغْتَةً	-2758
▁صَبَرُوا	-2759
▁فَانظُرْ	-2760
▁كَمَثَلِ	-2761
▁لِّكُلِّ	-2762
▁مِّنْهُم	-2763
▁وَإِمَّا	-2764
▁وَكِيلًا	-2765
▁وَلِيًّا	-2766
▁أَدْرَاكَ	-2767
▁ادْخُلُوا	-2768
▁الْأَمْرِ	-2769
▁الْكَذِبَ	-2770
▁الْكُفَّا	-2771
▁بَيْنَنَا	-2772
▁رَبِّكُمْ	-2773
▁فَلَوْلَا	-2774
▁مُّبِينًا	-2775
▁وَأَنَّهُ	-2776
▁وَذَٰلِكَ	-2777
▁يَكُونُوا	-2778
▁يُبَيِّنُ	-2779
▁الرَّسُولُ	-2780
▁السَّاعَةُ	-2781
▁السَّمَاءَ	-2782
▁النَّهَارِ	-2783
▁الْقُرْآنِ	-2784
▁لِقَوْمِهِ	-2785
▁لِّلنَّاسِ	-2786
▁وَرَحْمَةً	-2787
▁يُرِيدُونَ	-2788
▁الْحُسْنَىٰ	-2789
▁تَتَّخِذُوا	-2790
▁وَاذْكُرُوا	-2791
▁وَالْقَمَرَ	-2792
▁يَحْزَنُونَ	-2793
▁يَظْلِمُونَ	-2794
▁يَفْعَلُونَ	-2795
▁يَفْقَهُونَ	-2796
▁الْمَدِينَةِ	-2797
▁وَالنَّهَارِ	-2798
▁السَّيِّئَاتِ	-2799
▁الْخَاسِرِينَ	-2800
▁الْمُجْرِمُونَ	-2801
▁ح	-2802
ئُو	-2803
رٍّ	-2804
غُو	-2805
قُص	-2806
ُلٍ	-2807
ُمِ	-2808
▁ضِ	-2809
بَةٍ	-2810
تُكَ	-2811
ثْمِ	-2812
حِيَ	-2813
رَضٌ	-2814
سْعَ	-2815
صْفَ	-2816
عَةٍ	-2817
عَيْ	-2818
غْرِ	-2819
فَةً	-2820
قَلِ	-2821
كِهَ	-2822
لِجُ	-2823
مْعَ	-2824
هْلِ	-2825
▁تَّ	-2826
▁وَإ	-2827
آيَةٍ	-2828
بَدِّ	-2829
تَهَا	-2830
حَرِّ	-2831
حْكُم	-2832
ذُوهُ	-2833
رَاتٍ	-2834
رُونِ	-2835
رْنِي	-2836
زِيدُ	-2837
سَانِ	-2838
شِّرِ	-2839
طُونَ	-2840
طِينَ	-2841
فُورٌ	-2842
فُورُ	-2843
قُوهُ	-2844
لَامِ	-2845
مْتُم	-2846
نُونٍ	-2847
وَاتُ	-2848
▁آذَا	-2849
▁أَمِ	-2850
▁أُمَ	-2851
▁بِعِ	-2852
▁بِلِ	-2853
▁تَلْ	-2854
▁سَنُ	-2855
▁سَيُ	-2856
▁شَجَ	-2857
▁عَهْ	-2858
▁فَال	-2859
▁فَبَ	-2860
▁لَتُ	-2861
▁لَغَ	-2862
▁مَسْ	-2863
▁وَبُ	-2864
▁يُبْ	-2865
ئِكُمْ	-2866
تَكُمْ	-2867
عُهُمْ	-2868
مَاعِي	-2869
وَيْلٌ	-2870
ُمِيتُ	-2871
▁آيَةٍ	-2872
▁أَبَا	-2873
▁أُجُو	-2874
▁ابْنُ	-2875
▁اعْتَ	-2876
▁الضَّ	-2877
▁الظَّ	-2878
▁الْفِ	-2879
▁تَخَا	-2880
▁تَعَا	-2881
▁ذُنُو	-2882
▁سَاءَ	-2883
▁غَافِ	-2884
▁فَالْ	-2885
▁فَضَّ	-2886
▁مَوَا	-2887
▁مَّسْ	-2888
▁وَادْ	-2889
▁وَجَا	-2890
▁يُعِي	-2891
بَاطِلِ	-2892
تِغَاءَ	-2893
رَّحْمَ	-2894
كِتَابِ	-2895
مُرُونَ	-2896
نَزِّلُ	-2897
نَّكُمْ	-2898
هَادَةِ	-2899
▁أَسْأَ	-2900
▁أَقْرَ	-2901
▁أَمْرِ	-2902
▁الْحَا	-2903
▁بَلَغَ	-2904
▁تَحْزَ	-2905
▁تَرَكَ	-2906
▁سِحْرٌ	-2907
▁عَلِمَ	-2908
▁عِيسَى	-2909
▁فَلَمْ	-2910
▁فَلَهُ	-2911
▁مُخْلِ	-2912
▁مِنكُم	-2913
▁مُّهِي	-2914
▁وَلَدٌ	-2915
صُدُّونَ	-2916
صْبِرُوا	-2917
▁بَعِيدٍ	-2918
▁بِآيَةٍ	-2919
▁بِالْأَ	-2920
▁بِذَاتِ	-2921
▁بِعِبَا	-2922
▁تَأْتِي	-2923
▁تَأْوِي	-2924
▁تَوَكَّ	-2925
▁دَرَجَا	-2926
▁رِزْقًا	-2927
▁رَّحْمَ	-2928
▁سَيِّئَ	-2929
▁شَدِيدٌ	-2930
▁عِبَادَ	-2931
▁فَرِيقٌ	-2932
▁قُوَّةً	-2933
▁كَرِيمٌ	-2934
▁لِكُلِّ	-2935
▁نَشَاءُ	-2936
▁وَاحِدٌ	-2937
▁وَجُنُو	-2938
▁وَرَاءَ	-2939
حْشَرُونَ	-2940
عْجِلُونَ	-2941
عْلَمُونَ	-2942
كْبِرُونَ	-2943
▁أَخْرَجَ	-2944
▁أَفَلَمْ	-2945
▁الْبَرِّ	-2946
▁الْبَلَا	-2947
▁بِرَحْمَ	-2948
▁خَبِيرًا	-2949
▁دَابَّةٍ	-2950
▁كُلَّمَا	-2951
▁كِتَابًا	-2952
▁يَخْلُقُ	-2953
▁يَرَوْنَ	-2954
عَالَمِينَ	-2955
▁آيَاتُنَا	-2956
▁أَنَّكُمْ	-2957
▁الْأَمْرُ	-2958
▁الْعِلْمِ	-2959
▁الْقَوْلُ	-2960
▁بَيْنَهُم	-2961
▁بِعَذَابٍ	-2962
▁شُهَدَاءَ	-2963
▁فَيَقُولُ	-2964
▁أَشْرَكُوا	-2965
▁السَّاعَةَ	-2966
▁النَّهَارَ	-2967
▁الْيَمِينِ	-2968
▁بِأَمْرِهِ	-2969
▁تُوعَدُونَ	-2970
▁قُلُوبِهِم	-2971
▁وَالسَّمَا	-2972
▁يُؤْمِنُوا	-2973
▁الْقُرْبَىٰ	-2974
▁الْمَسْجِدِ	-2975
▁بِالْغَيْبِ	-2976
▁فَجَعَلْنَا	-2977
▁يَكْفُرُونَ	-2978
▁أَرَأَيْتُمْ	-2979
▁الظُّلُمَاتِ	-2980
▁وَأَنزَلْنَا	-2981
▁وَالنَّهَارَ	-2982
▁أَرْسَلْنَاكَ	-2983
▁الْمُفْلِحُونَ	-2984
▁ط	-2985
زَك	-2986
سِّ	-2987
شُّ	-2988
ظًا	-2989
قَى	-2990
نصُ	-2991
وًا	-2992
يًا	-2993
ُنُ	-2994
ُنْ	-2995
ِنِ	-2996
▁غِ	-2997
ئِدَ	-2998
بِطَ	-2999
تُوَ	-3000
تْهُ	-3001
ذَّا	-3002
رَةَ	-3003
رُكَ	-3004
رْكَ	-3005
رْنَ	-3006
سُطُ	-3007
صِبْ	-3008
عَةُ	-3009
قَةٍ	-3010
قَةُ	-3011
كُلُ	-3012
كُوا	-3013
لَوْ	-3014
لْهُ	-3015
مَةٌ	-3016
مَعَ	-3017
مَهُ	-3018
مَّن	-3019
مْعِ	-3020
يْهِ	-3021
ِّيَ	-3022
▁آلَ	-3023
▁رِي	-3024
▁سِي	-3025
▁كُو	-3026
▁هُو	-3027
ءُوفٌ	-3028
ئِنَّ	-3029
بِيٍّ	-3030
بْلِي	-3031
تَانِ	-3032
تُهَا	-3033
جَهَا	-3034
دَيَّ	-3035
دُوهُ	-3036
رَبَّ	-3037
زُوًا	-3038
سَارِ	-3039
شُونَ	-3040
طَهَّ	-3041
عَامُ	-3042
عْتُم	-3043
قَاءِ	-3044
كَفِّ	-3045
كَّرُ	-3046
لَّةٌ	-3047
مُوتُ	-3048
نُّوا	-3049
ِرْتُ	-3050
▁أَتُ	-3051
▁أَتْ	-3052
▁أَضْ	-3053
▁تَخَ	-3054
▁تُطِ	-3055
▁حُكْ	-3056
▁سَوْ	-3057
▁شَهِ	-3058
▁ظُلْ	-3059
▁فَرِ	-3060
▁فَمَ	-3061
▁كَرِ	-3062
▁كَمْ	-3063
▁مَرَ	-3064
▁مُّن	-3065
▁وَحُ	-3066
▁وَكُ	-3067
▁يَطْ	-3068
▁يُدْ	-3069
▁يُصْ	-3070
▁يُلْ	-3071
بِعُوا	-3072
بْلُوَ	-3073
جُدُوا	-3074
جَّدًا	-3075
دتُّمْ	-3076
دَيْنِ	-3077
عْتُمْ	-3078
غَيْرَ	-3079
فُرُوا	-3080
قْدِرُ	-3081
لَامًا	-3082
لَّتِي	-3083
نَكُمْ	-3084
▁أَإِن	-3085
▁أَمِي	-3086
▁الْغُ	-3087
▁بَرِي	-3088
▁بِهِم	-3089
▁تَابَ	-3090
▁حَفِي	-3091
▁حَنِي	-3092
▁حِجَا	-3093
▁زِينَ	-3094
▁صَلَا	-3095
▁لَّعَ	-3096
▁لِّأَ	-3097
▁مَسَا	-3098
▁مَقَا	-3099
▁مِلَّ	-3100
▁وَأُم	-3101
▁وَنَا	-3102
▁وَيَا	-3103
▁يُنَا	-3104
سُلْطَا	-3105
طَعْنَا	-3106
لُوكُمْ	-3107
لُوهُمْ	-3108
وَكَّلْ	-3109
وَلَّىٰ	-3110
يَّنَّا	-3111
▁أَجْرٌ	-3112
▁الْأَن	-3113
▁تَجِدَ	-3114
▁تَخْرُ	-3115
▁خَلْفَ	-3116
▁ذِكْرِ	-3117
▁شَيْءٌ	-3118
▁شُعَيْ	-3119
▁عَدْنٍ	-3120
▁عَنَّا	-3121
▁عِلْمٌ	-3122
▁غَيْرِ	-3123
▁فَأَحْ	-3124
▁فَضْلُ	-3125
▁لَيْتَ	-3126
▁لِمَنْ	-3127
▁لَّنَا	-3128
▁مِثْلَ	-3129
▁وَأَجْ	-3130
▁وَقَوْ	-3131
▁وَلَيَ	-3132
▁وَلِلْ	-3133
▁يَأْتِ	-3134
▁يَبْعَ	-3135
▁يَعْرِ	-3136
طِيعُونِ	-3137
مَاعِيلَ	-3138
▁أَإِذَا	-3139
▁إِبْلِي	-3140
▁الْأَيْ	-3141
▁الْبَيْ	-3142
▁الْكُفْ	-3143
▁بَيْنِي	-3144
▁بُيُوتِ	-3145
▁بِذُنُو	-3146
▁تَكُونُ	-3147
▁جَاءَكَ	-3148
▁شَهِيدٌ	-3149
▁لِقَاءَ	-3150
▁مَكَانَ	-3151
▁مَوْلَا	-3152
▁مَّرَضٌ	-3153
▁نَزَّلَ	-3154
▁هُزُوًا	-3155
▁وَآتُوا	-3156
▁وَلِيٍّ	-3157
▁وُجُوهَ	-3158
▁يَدْخُل	-3159
سُلْطَانٍ	-3160
▁أَفَرَأَ	-3161
▁النَّارَ	-3162
▁بِبَعْضٍ	-3163
▁بِحَمْدِ	-3164
▁تَأْتِيَ	-3165
▁جَنَّاتِ	-3166
▁دَاوُودَ	-3167
▁سُجَّدًا	-3168
▁شَدِيدًا	-3169
▁فِتْنَةٌ	-3170
▁مِيثَاقَ	-3171
▁مَّعْلُو	-3172
▁نَصِيرًا	-3173
▁وَتِلْكَ	-3174
▁وَعَمِلَ	-3175
▁وَمِمَّا	-3176
▁أَبْنَاءَ	-3177
▁الرِّزْقَ	-3178
▁الشَّمْسَ	-3179
▁الْبَحْرَ	-3180
▁الْبَيِّن	-3181
▁الْفُلْكِ	-3182
▁الْقَرْيَ	-3183
▁الْمَوْتَ	-3184
▁الْمَوْتُ	-3185
▁بِالَّذِي	-3186
▁جَاءَكُمْ	-3187
▁جَاءَهُمُ	-3188
▁سَبِيلِهِ	-3189
▁شُرَكَاءَ	-3190
▁فَأَنَّىٰ	-3191
▁فَاصْبِرْ	-3192
▁فَذُوقُوا	-3193
▁مَوْتِهَا	-3194
▁وَأَصْحَا	-3195
▁وَأَنزَلَ	-3196
▁وَأَنفُسِ	-3197
▁وَبَشِّرِ	-3198
▁وَسَخَّرَ	-3199
▁وَمَأْوَا	-3200
▁وَيَقُولُ	-3201
▁يَجِدُونَ	-3202
▁يَرْجُونَ	-3203
▁يَقُولُوا	-3204
▁الْآخِرَةَ	-3205
▁الْبَلَاغُ	-3206
▁الْجِبَالُ	-3207
▁الْحَيَاةَ	-3208
▁الْغَفُورُ	-3209
▁سُلْطَانًا	-3210
▁وَرَحْمَةٌ	-3211
▁وَرُسُلِهِ	-3212
▁يُنصَرُونَ	-3213
▁يُوقِنُونَ	-3214
▁أَكْثَرُهُم	-3215
▁تَأْكُلُونَ	-3216
▁تَكْفُرُونَ	-3217
▁تُفْلِحُونَ	-3218
▁جَاءَتْهُمْ	-3219
▁عَلَيْهِنَّ	-3220
▁وَأَقِيمُوا	-3221
▁يُبْصِرُونَ	-3222
▁أَسْأَلُكُمْ	-3223
▁أَكْثَرُهُمْ	-3224
▁الثَّمَرَاتِ	-3225
▁الْأَنْعَامِ	-3226
▁وَأَطِيعُونِ	-3227
▁اسْتَكْبَرُوا	-3228
▁الْخَاسِرُونَ	-3229
▁الْفَاسِقِينَ	-3230
▁الْمُسْلِمِينَ	-3231
▁لِلْمُتَّقِينَ	-3232
صٍ	-3233
كٍ	-3234
▁ز	-3235
ئِي	-3236
ائَ	-3237
ذَن	-3238
سُّ	-3239
أْخُ	-3240
ئِهِ	-3241
بًّا	-3242
تَلَ	-3243
ثَلُ	-3244
جِدَ	-3245
حْرِ	-3246
حْشُ	-3247
حْضَ	-3248
خْتِ	-3249
دُّو	-3250
ذَرُ	-3251
ذَنَ	-3252
ذُرِ	-3253
زَّا	-3254
سِنَ	-3255
شَرَ	-3256
شِيَ	-3257
صَرَ	-3258
طْعِ	-3259
عَتْ	-3260
فَرَ	-3261
قِهِ	-3262
كْتَ	-3263
مِلُ	-3264
هَّا	-3265
هْرَ	-3266
وْهُ	-3267
ِّهِ	-3268
▁لَآ	-3269
بَاؤُ	-3270
بُهَا	-3271
بِيهِ	-3272
بْرًا	-3273
تُنَا	-3274
تِيهِ	-3275
خَلَّ	-3276
دَوْا	-3277
دَّتْ	-3278
رَاءِ	-3279
رِيعُ	-3280
زَاؤُ	-3281
زُونَ	-3282
ضَاعَ	-3283
ضِلَّ	-3284
طِيرُ	-3285
عَاءَ	-3286
عِيمِ	-3287
كَادُ	-3288
كَانٍ	-3289
مَنًا	-3290
مُودُ	-3291
نِيُّ	-3292
▁أَيَ	-3293
▁إِخْ	-3294
▁بِنَ	-3295
▁تَذْ	-3296
▁تَقَ	-3297
▁تُغْ	-3298
▁حُسْ	-3299
▁خَرَ	-3300
▁دَعَ	-3301
▁صَدْ	-3302
▁صِدْ	-3303
▁ضَرَ	-3304
▁فَحَ	-3305
▁فِئَ	-3306
▁كُفْ	-3307
▁لَرَ	-3308
▁لَعِ	-3309
▁مِّي	-3310
▁وَخَ	-3311
▁يُخَ	-3312
▁يُرِ	-3313
▁يُرْ	-3314
▁يُوَ	-3315
ؤْمِنُ	-3316
دْيَنَ	-3317
ذِيرًا	-3318
رَارًا	-3319
رْسِلَ	-3320
شْرِكْ	-3321
عْرِضْ	-3322
فِهِمْ	-3323
للَّهِ	-3324
مِنُوا	-3325
▁آخَرَ	-3326
▁أَبِي	-3327
▁اسْتُ	-3328
▁الدَّ	-3329
▁الشِّ	-3330
▁الضُّ	-3331
▁الْكِ	-3332
▁بُطُو	-3333
▁جُنُو	-3334
▁خَاشِ	-3335
▁ذَاتِ	-3336
▁ذُكِّ	-3337
▁رَوَا	-3338
▁رُءُو	-3339
▁شَفَا	-3340
▁ظُهُو	-3341
▁عَابِ	-3342
▁غَنِي	-3343
▁لَّكَ	-3344
▁لِّيُ	-3345
▁وَآتَ	-3346
▁وَعَا	-3347
▁وَعِن	-3348
▁وَعِي	-3349
▁يَذَّ	-3350
أُنثَىٰ	-3351
أْتُونَ	-3352
تَوَكَّ	-3353
تَّخِذَ	-3354
جِدِينَ	-3355
جِيبُوا	-3356
خِرُونَ	-3357
ذَرُونَ	-3358
صِرِينَ	-3359
فَكُونَ	-3360
ِنِعْمَ	-3361
▁آيَاتٍ	-3362
▁أَجْرٍ	-3363
▁اتَّبَ	-3364
▁الْبَا	-3365
▁انظُرْ	-3366
▁تَحْسَ	-3367
▁تَسْأَ	-3368
▁تَقْرَ	-3369
▁حَرَجٌ	-3370
▁رَزَقَ	-3371
▁عِلْمُ	-3372
▁فَسَيَ	-3373
▁فَضْلٍ	-3374
▁لَئِنْ	-3375
▁لِلْمَ	-3376
▁مَثَلُ	-3377
▁مِمَّن	-3378
▁نَفْسَ	-3379
▁وَأَبْ	-3380
▁وَخَلَ	-3381
▁وَلَعَ	-3382
▁وَهِيَ	-3383
▁يَجْحَ	-3384
▁يَحْسَ	-3385
▁يَشْهَ	-3386
▁يَقْتُ	-3387
▁يُبْعَ	-3388
▁يُدْخِ	-3389
رِيدُونَ	-3390
قُولُنَّ	-3391
كُونَنَّ	-3392
▁آمِنُوا	-3393
▁أَخِيهِ	-3394
▁أَيْدِي	-3395
▁أُمَّةٌ	-3396
▁الصَّيْ	-3397
▁الطَّيْ	-3398
▁تَابُوا	-3399
▁ثَمَنًا	-3400
▁ذِكْرًا	-3401
▁رَبُّهُ	-3402
▁صُدُورِ	-3403
▁عَلَّمَ	-3404
▁كَأَنَّ	-3405
▁لَهُنَّ	-3406
▁مَرَّةٍ	-3407
▁مِمَّنِ	-3408
▁مُّقْتَ	-3409
▁نَّحْنُ	-3410
▁هَادُوا	-3411
▁وَبِالْ	-3412
▁وَتَرَى	-3413
▁وَلِيُّ	-3414
▁يَتَّبِ	-3415
▁يَحْكُم	-3416
▁يُضِلُّ	-3417
خْرَجْنَا	-3418
سْرِفِينَ	-3419
لَائِكَةُ	-3420
▁أَهْلِهِ	-3421
▁الرِّيَا	-3422
▁الصُّورِ	-3423
▁الْمَسِي	-3424
▁جَاءَكُم	-3425
▁حَنِيفًا	-3426
▁عَدُوًّا	-3427
▁فَإِنَّا	-3428
▁فَرِيقًا	-3429
▁فِتْنَةً	-3430
▁مَّعْرُو	-3431
▁نَفْسِهِ	-3432
▁وَإِلَىٰ	-3433
▁يَأْمُرُ	-3434
▁يَحْكُمُ	-3435
▁يَرْزُقُ	-3436
▁يَسْتَأْ	-3437
▁آبَاءَنَا	-3438
▁أَزْوَاجِ	-3439
▁أَصْحَابَ	-3440
▁أَصْحَابِ	-3441
▁اثْنَيْنِ	-3442
▁السَّمْعَ	-3443
▁الْعِلْمَ	-3444
▁الْمُلْكُ	-3445
▁ذَٰلِكُمُ	-3446
▁وَاذْكُرْ	-3447
▁وَيَهْدِي	-3448
▁ابْتِغَاءَ	-3449
▁السَّاعَةِ	-3450
▁الصَّلَاةِ	-3451
▁النَّعِيمِ	-3452
▁الْأَحْزَا	-3453
▁الْأَمْثَا	-3454
▁عِبَادِنَا	-3455
▁مُصَدِّقًا	-3456
▁وَيَعْلَمُ	-3457
▁يُوعَدُونَ	-3458
▁فَإِنَّهُمْ	-3459
▁فَالَّذِينَ	-3460
▁كَأَنَّهُمْ	-3461
▁مَّغْفِرَةٌ	-3462
▁وَإِنَّهُمْ	-3463
▁وَكَذَّبُوا	-3464
▁وَيَعْقُوبَ	-3465
▁يَمْلِكُونَ	-3466
▁يَهْتَدُونَ	-3467
▁الشَّيْطَانَ	-3468
▁وَاتَّبَعُوا	-3469
▁الصَّابِرِينَ	-3470
▁الْكَاذِبِينَ	-3471
▁رَزَقْنَاهُمْ	-3472
▁يَخْتَلِفُونَ	-3473
▁الْمُفْسِدِينَ	-3474
▁لِلظَّالِمِينَ	-3475
▁وَالشَّهَادَةِ	-3476
▁يَتَفَكَّرُونَ	-3477
إٍ	-3478
ءًا	-3479
ذُّ	-3480
نِّ	-3481
▁طُ	-3482
▁لُ	-3483
بِكَ	-3484
تَمَ	-3485
جَّا	-3486
حْصَ	-3487
ذْهِ	-3488
زَلَ	-3489
زُوا	-3490
سُّو	-3491
صَيْ	-3492
ضْعَ	-3493
ظُلْ	-3494
عَمْ	-3495
عُدْ	-3496
عِظَ	-3497
كْرَ	-3498
لُغَ	-3499
نَتْ	-3500
نَعَ	-3501
وِيَ	-3502
َاءٍ	-3503
َّةَ	-3504
َّةِ	-3505
▁طِي	-3506
▁مَآ	-3507
أَنَّ	-3508
ؤَاخِ	-3509
بْعُو	-3510
تَّكِ	-3511
ثِينَ	-3512
جَالِ	-3513
جُوهُ	-3514
حِلُّ	-3515
دَانِ	-3516
دِيثِ	-3517
دْبَا	-3518
رَدُّ	-3519
رِهِم	-3520
رْتُم	-3521
رْضًا	-3522
صَاحِ	-3523
ضَاءَ	-3524
طَهِّ	-3525
عُيُو	-3526
غْيَا	-3527
فَرِّ	-3528
فْوَا	-3529
قَانِ	-3530
قُرْآ	-3531
قِيمٌ	-3532
كِينِ	-3533
لَاتِ	-3534
لَامٍ	-3535
لِهَا	-3536
لَّىٰ	-3537
نُونٌ	-3538
وَاهُ	-3539
ُمْسِ	-3540
ِنُوا	-3541
▁أَذِ	-3542
▁أَشُ	-3543
▁إِذِ	-3544
▁إِصْ	-3545
▁الْع	-3546
▁انتَ	-3547
▁بُكْ	-3548
▁بِخَ	-3549
▁بِوَ	-3550
▁تَضَ	-3551
▁تُوَ	-3552
▁حَرْ	-3553
▁حَسِ	-3554
▁دَعْ	-3555
▁ذَكَ	-3556
▁عِوَ	-3557
▁فَدَ	-3558
▁قَدَ	-3559
▁قَرْ	-3560
▁لَجَ	-3561
▁لَشَ	-3562
▁لَقَ	-3563
▁لِكَ	-3564
▁مَعْ	-3565
▁مُدْ	-3566
▁يُؤَ	-3567
▁يُخْ	-3568
أُولِي	-3569
جَدُوا	-3570
جَرُوا	-3571
خْتَلِ	-3572
دُكُمْ	-3573
رُوهَا	-3574
رْسِلُ	-3575
زَكِّي	-3576
سَانًا	-3577
سْمِعُ	-3578
شَيْءٍ	-3579
شْرِكَ	-3580
طْفَةٍ	-3581
ظَامًا	-3582
عْمَىٰ	-3583
قْبَلَ	-3584
قْسِمُ	-3585
كَانًا	-3586
لَيْنِ	-3587
مِيزَا	-3588
هِدُوا	-3589
َاءُوا	-3590
▁آيَةٌ	-3591
▁أَنشَ	-3592
▁اجْتَ	-3593
▁اذْهَ	-3594
▁اسْمَ	-3595
▁اقْتَ	-3596
▁الصِّ	-3597
▁الْأُ	-3598
▁الْخِ	-3599
▁خَاسِ	-3600
▁خَلَا	-3601
▁دَعَا	-3602
▁رِّزْ	-3603
▁سُنَّ	-3604
▁سُوءُ	-3605
▁شَاهِ	-3606
▁شَكُو	-3607
▁صُدُو	-3608
▁طَلَّ	-3609
▁عَادٍ	-3610
▁كَأَن	-3611
▁كَمَن	-3612
▁لِّتَ	-3613
▁هُنَا	-3614
▁وَاشْ	-3615
▁يَنتَ	-3616
▁يَنَا	-3617
خَرُونَ	-3618
دَدْنَا	-3619
ذِرِينَ	-3620
غَافِلٍ	-3621
فِظُونَ	-3622
كَلِّمُ	-3623
لِنُونَ	-3624
مِعُونَ	-3625
َاءُونَ	-3626
▁أَحَدَ	-3627
▁أَعْجَ	-3628
▁أَعْرَ	-3629
▁أَمَرَ	-3630
▁أَمَّا	-3631
▁أَمْرَ	-3632
▁أَنصَا	-3633
▁إِمَّا	-3634
▁السُّو	-3635
▁الضَّا	-3636
▁الطَّا	-3637
▁بَعْدُ	-3638
▁بَيْنِ	-3639
▁تَخَفْ	-3640
▁ذِكْرٌ	-3641
▁ضَرًّا	-3642
▁فَاتَّ	-3643
▁قَضَىٰ	-3644
▁مَتَىٰ	-3645
▁مُّنِي	-3646
▁نُورًا	-3647
▁وَأَقْ	-3648
▁وَإِلَ	-3649
▁وَجْهِ	-3650
▁وَذِكْ	-3651
▁وَقَعَ	-3652
▁وَلَتَ	-3653
▁وَلَنَ	-3654
▁وَيُؤْ	-3655
▁يَجِدْ	-3656
▁يَجْمَ	-3657
▁يَوْمٌ	-3658
عْمَلُوا	-3659
غْفِرُوا	-3660
نْهَوْنَ	-3661
▁آيَاتِي	-3662
▁أَحَقُّ	-3663
▁أَشَدَّ	-3664
▁أَكُونَ	-3665
▁أَمِينٌ	-3666
▁أُوحِيَ	-3667
▁إِخْوَا	-3668
▁الشَّجَ	-3669
▁الْمُتَ	-3670
▁الْوَعْ	-3671
▁بَرِيءٌ	-3672
▁بَشَرًا	-3673
▁بَعْضًا	-3674
▁تَشَاءُ	-3675
▁جَزَاؤُ	-3676
▁جُنَاحٌ	-3677
▁جِئْنَا	-3678
▁حَلِيمٌ	-3679
▁رَسُولُ	-3680
▁رَّبِّي	-3681
▁زُيِّنَ	-3682
▁سَرِيعُ	-3683
▁سَوَاءٌ	-3684
▁سِنِينَ	-3685
▁ضَلُّوا	-3686
▁طُغْيَا	-3687
▁عَذَابُ	-3688
▁عِلْمًا	-3689
▁فَاسْأَ	-3690
▁فَضْلًا	-3691
▁فِيكُمْ	-3692
▁كُونُوا	-3693
▁لَكَاذِ	-3694
▁لَّيْسَ	-3695
▁مِّنكُم	-3696
▁وَالطَّ	-3697
▁يَضُرُّ	-3698
تَوَكَّلِ	-3699
تُمُوهُمْ	-3700
عَلَّهُمْ	-3701
عْجِزِينَ	-3702
نفُسِهِمْ	-3703
هْتَدِينَ	-3704
▁أَإِنَّا	-3705
▁أَجْرِيَ	-3706
▁أَغْنَىٰ	-3707
▁أَقْرَبُ	-3708
▁أُمَّهَا	-3709
▁الضَّلَا	-3710
▁الْبَاطِ	-3711
▁الْخَالِ	-3712
▁الْغَالِ	-3713
▁بُيُوتًا	-3714
▁تُرَابًا	-3715
▁جَنَّاتُ	-3716
▁رَأَيْتَ	-3717
▁عَذَابِي	-3718
▁غَيْرُهُ	-3719
▁فَأْتُوا	-3720
▁فَوَيْلٌ	-3721
▁فِيهِنَّ	-3722
▁قَرِيبًا	-3723
▁قُرْآنًا	-3724
▁مَدْيَنَ	-3725
▁مَعَهُمْ	-3726
▁مُّصِيبَ	-3727
▁مُّوسَىٰ	-3728
▁هَارُونَ	-3729
▁وَأَعْتَ	-3730
▁وَإِيَّا	-3731
▁وَكُلًّا	-3732
▁يَبْسُطُ	-3733
▁يَخْرُجُ	-3734
▁يُضْلِلِ	-3735
▁يُفْلِحُ	-3736
▁اتَّقَوْا	-3737
▁اذْكُرُوا	-3738
▁اسْتَوَىٰ	-3739
▁الْقَوْلِ	-3740
▁بَيِّنَةٍ	-3741
▁بِغَافِلٍ	-3742
▁تَبَيَّنَ	-3743
▁تَوَلَّىٰ	-3744
▁رَبَّهُمْ	-3745
▁رَسُولِهِ	-3746
▁رَوَاسِيَ	-3747
▁رُسُلُهُم	-3748
▁سُلْطَانٍ	-3749
▁فَإِنَّكَ	-3750
▁فَمِنْهُم	-3751
▁فَيَكُونُ	-3752
▁لِأَبِيهِ	-3753
▁نُّطْفَةٍ	-3754
▁هُنَالِكَ	-3755
▁وَثَمُودَ	-3756
▁وَرَبُّكَ	-3757
▁وَمِنْهَا	-3758
▁وَيُمِيتُ	-3759
▁أَرَأَيْتَ	-3760
▁أَسَاطِيرُ	-3761
▁النِّسَاءَ	-3762
▁الْأَبْصَا	-3763
▁الْحَكِيمِ	-3764
▁بِإِذْنِهِ	-3765
▁تَفْعَلُوا	-3766
▁تَكُونَنَّ	-3767
▁تُؤْمِنُوا	-3768
▁تُجْزَوْنَ	-3769
▁رَحْمَتِهِ	-3770
▁ظَالِمِينَ	-3771
▁قَبْلَهُمْ	-3772
▁لِلرَّحْمَ	-3773
▁وَالرَّسُو	-3774
▁وَالْمَسَا	-3775
▁وَيَقْدِرُ	-3776
▁أَنفُسُهُمْ	-3777
▁اخْتَلَفُوا	-3778
▁بِرَبِّهِمْ	-3779
▁تُبْصِرُونَ	-3780
▁سُبْحَانَكَ	-3781
▁كَالَّذِينَ	-3782
▁وَإِسْحَاقَ	-3783
▁يَدْخُلُونَ	-3784
▁يَشْكُرُونَ	-3785
▁يَعْبُدُونَ	-3786
▁بِالْبَاطِلِ	-3787
▁تُكَذِّبُونَ	-3788
▁فَأَصْبَحُوا	-3789
▁لَكَاذِبُونَ	-3790
▁لَيَقُولُنَّ	-3791
▁مَرْجِعُكُمْ	-3792
▁مُّعْرِضُونَ	-3793
▁وَآتَيْنَاهُ	-3794
▁وَالْمُنَافِ	-3795
▁يُقَاتِلُونَ	-3796
▁أَعْمَالُهُمْ	-3797
▁النَّبِيِّينَ	-3798
▁الْفَاسِقُونَ	-3799
▁وَالْحِكْمَةَ	-3800
▁وَلَعَلَّكُمْ	-3801
▁يَسْأَلُونَكَ	-3802
▁الْمَلَائِكَةَ	-3803
▁فَلْيَتَوَكَّلِ	-3804
▁لِلْمَلَائِكَةِ	-3805
▁لِّلْعَالَمِينَ	-3806
ظٌ	-3807
حْش	-3808
حْص	-3809
خِّ	-3810
طِّ	-3811
▁ذِ	-3812
▁ظِ	-3813
ئِرَ	-3814
بَةٌ	-3815
بَعُ	-3816
بَكَ	-3817
بِيَ	-3818
بْشِ	-3819
بْطِ	-3820
تَّا	-3821
جَةً	-3822
حُكْ	-3823
خُذْ	-3824
دَّا	-3825
دِّي	-3826
رْجُ	-3827
زِدْ	-3828
شْيَ	-3829
صْلِ	-3830
ضْعِ	-3831
عَةِ	-3832
فَتْ	-3833
فْتِ	-3834
مَرُ	-3835
هَدْ	-3836
هْبِ	-3837
وْكَ	-3838
يَىٰ	-3839
يَّا	-3840
▁أَذ	-3841
▁الث	-3842
▁الم	-3843
▁رُّ	-3844
▁ظَا	-3845
▁ظُل	-3846
▁وَأ	-3847
بَاءِ	-3848
بُونِ	-3849
تَابَ	-3850
حَامِ	-3851
حَقِّ	-3852
دَّقَ	-3853
رِيبٍ	-3854
رِيقَ	-3855
رَّةٍ	-3856
رْهَا	-3857
زْدَا	-3858
صِيبُ	-3859
صِّلُ	-3860
ضِيعُ	-3861
ضِينَ	-3862
عَاءِ	-3863
عَامَ	-3864
عِيرِ	-3865
فَاءَ	-3866
فَهَا	-3867
قَالَ	-3868
قَكُم	-3869
قُصُّ	-3870
قُلُو	-3871
كَّىٰ	-3872
لَادِ	-3873
لَامَ	-3874
لَكُم	-3875
لِنَا	-3876
مَاءُ	-3877
نذِرَ	-3878
نُهَا	-3879
وَدَّ	-3880
وِيٌّ	-3881
▁آتِي	-3882
▁آثَا	-3883
▁أَثْ	-3884
▁أَجِ	-3885
▁أَطْ	-3886
▁أَهَ	-3887
▁ثَمَ	-3888
▁جَهْ	-3889
▁حِزْ	-3890
▁سَفَ	-3891
▁سَلَ	-3892
▁شَهْ	-3893
▁صَيْ	-3894
▁ضَيْ	-3895
▁ظَنَ	-3896
▁غَضَ	-3897
▁فَفَ	-3898
▁قُتِ	-3899
▁كَشَ	-3900
▁مَجْ	-3901
▁مُحَ	-3902
▁نَتَ	-3903
▁نَسْ	-3904
▁نَقْ	-3905
▁وَأْ	-3906
▁وَذُ	-3907
▁يَمَ	-3908
▁يُصَ	-3909
▁يُضِ	-3910
▁يُعَ	-3911
أْتِيَ	-3912
ؤُكُمْ	-3913
بَارَك	-3914
بَّارٍ	-3915
تْهُمْ	-3916
ثْتُمْ	-3917
خْرَىٰ	-3918
خْلِفُ	-3919
دَادًا	-3920
رُورًا	-3921
رِكُمْ	-3922
رِيقًا	-3923
سَنَةِ	-3924
صَّلَا	-3925
عِيرًا	-3926
عْمَلْ	-3927
قَوْلِ	-3928
قُضِيَ	-3929
لَالًا	-3930
مِهِمْ	-3931
نَّهُم	-3932
هَارًا	-3933
هُكُمْ	-3934
وَارِي	-3935
وَفَّا	-3936
▁ابْتَ	-3937
▁ارْجِ	-3938
▁اصْطَ	-3939
▁الذَّ	-3940
▁الذُّ	-3941
▁الْعُ	-3942
▁بَدَّ	-3943
▁بَلَا	-3944
▁بَنَا	-3945
▁بِمَن	-3946
▁جَدِي	-3947
▁حَيَا	-3948
▁خَزَا	-3949
▁دُونَ	-3950
▁رِسَا	-3951
▁سُوءٍ	-3952
▁صَاحِ	-3953
▁طَائِ	-3954
▁طِينٍ	-3955
▁عَصَا	-3956
▁عَنكَ	-3957
▁غَلِي	-3958
▁فَاعِ	-3959
▁فَاعْ	-3960
▁فَرَّ	-3961
▁لَذُو	-3962
▁مَنَا	-3963
▁مَّرْ	-3964
▁نَسِي	-3965
▁وَامْ	-3966
▁يَسَّ	-3967
بَتْنَا	-3968
تَّعُوا	-3969
حَمُونَ	-3970
خْتِلَا	-3971
شَأْنَا	-3972
ظِرِينَ	-3973
عَالَىٰ	-3974
عَلُونَ	-3975
عُيُونٍ	-3976
عْرُوفٍ	-3977
فَصِّلُ	-3978
كَّنَّا	-3979
لْنَاهُ	-3980
نَاهُمْ	-3981
نْعَامِ	-3982
هَبْنَا	-3983
وْنَهَا	-3984
▁آيَاتٌ	-3985
▁أَبَتِ	-3986
▁أَرْسَ	-3987
▁أَهْلُ	-3988
▁أُوتِي	-3989
▁الدِّي	-3990
▁بَأْسُ	-3991
▁بِأَيْ	-3992
▁بِئْسَ	-3993
▁بِمِثْ	-3994
▁تَخْتَ	-3995
▁تَعْتَ	-3996
▁تُصِبْ	-3997
▁جَاءُو	-3998
▁رَجُلٌ	-3999
▁رَّبَّ	-4000
▁ظَلَمَ	-4001
▁عَمِلَ	-4002
▁فَأَتْ	-4003
▁فَإِنِ	-4004
▁كَتَبَ	-4005
▁كَرِهَ	-4006
▁كَفَّا	-4007
▁لَعْنَ	-4008
▁لَّهُم	-4009
▁مَعِيَ	-4010
▁وَأَضَ	-4011
▁وَمَلَ	-4012
▁يَذْكُ	-4013
▁يَسْجُ	-4014
▁يَشَأْ	-4015
▁يَضْرِ	-4016
▁يَعِدُ	-4017
▁يَهْدِ	-4018
خْرِجُوا	-4019
لْيَوْمَ	-4020
مِيزَانَ	-4021
▁أَبْوَا	-4022
▁أَشُدَّ	-4023
▁أَعْنَا	-4024
▁أَعْيُن	-4025
▁أَمْرِي	-4026
▁أَنشَأَ	-4027
▁أُنثَىٰ	-4028
▁ادْعُوا	-4029
▁اسْتَطَ	-4030
▁السَّحَ	-4031
▁بُرْهَا	-4032
▁تَقُومُ	-4033
▁حُكْمًا	-4034
▁ذُوقُوا	-4035
▁صَبْرًا	-4036
▁عَمَلًا	-4037
▁عِبَادِ	-4038
▁قَرِيبٌ	-4039
▁قَلِيلٌ	-4040
▁كَبِيرٌ	-4041
▁كَرِيمٍ	-4042
▁كِتَابِ	-4043
▁مَعَكُم	-4044
▁نَصِيبٌ	-4045
▁نَفْسِي	-4046
▁نَفْعًا	-4047
▁نِسَاءَ	-4048
▁وَالْحَ	-4049
▁وَالْعَ	-4050
▁وَضَلَّ	-4051
▁يَشَاءَ	-4052
جْعَلُونَ	-4053
خْلَصِينَ	-4054
غْرَقْنَا	-4055
▁آخَرِينَ	-4056
▁أَدْنَىٰ	-4057
▁أَرْبَعَ	-4058
▁أَعْبُدُ	-4059
▁أَنَّهُم	-4060
▁أُقْسِمُ	-4061
▁إِنَّهُم	-4062
▁إِيَّاهُ	-4063
▁الدَّارِ	-4064
▁النُّورِ	-4065
▁الْجِنَّ	-4066
▁الْخَبِي	-4067
▁الْعِزَّ	-4068
▁الْقِتَا	-4069
▁الْمَيِّ	-4070
▁الْيَهُو	-4071
▁تُسْمِعُ	-4072
▁حَسَنَةً	-4073
▁حَسَنَةٌ	-4074
▁خَسِرُوا	-4075
▁دَخَلُوا	-4076
▁ذَٰلِكُم	-4077
▁رَبَّهُم	-4078
▁رَّسُولٍ	-4079
▁عَنْهُمُ	-4080
▁عِبَادِي	-4081
▁فَاتَّبِ	-4082
▁فِيهِمَا	-4083
▁لِبَعْضٍ	-4084
▁مُّهِينٌ	-4085
▁نَصِيبًا	-4086
▁نِعْمَتَ	-4087
▁وَآبَاؤُ	-4088
▁وَأَكْثَ	-4089
▁وَأَنَّا	-4090
▁وَالسَّا	-4091
▁وَقَوْمَ	-4092
▁وَلَئِنْ	-4093
▁يَعْبُدُ	-4094
▁يَغْفِرُ	-4095
▁يَفْعَلُ	-4096
▁يَكْفُرْ	-4097
▁يَمْلِكُ	-4098
جَّيْنَاهُ	-4099
سَاءَلُونَ	-4100
▁أَخَاهُمْ	-4101
▁أَمْرُنَا	-4102
▁أَهْلِهَا	-4103
▁إِبْلِيسَ	-4104
▁اللَّاتِي	-4105
▁الْبَيْتِ	-4106
▁الْخَلْقَ	-4107
▁الْفُلْكَ	-4108
▁الْمَشْرِ	-4109
▁بَعَثْنَا	-4110
▁بِأَفْوَا	-4111
▁تَاللَّهِ	-4112
▁تُنفِقُوا	-4113
▁خَلَقَكُم	-4114
▁دَرَجَاتٍ	-4115
▁رَبُّهُمْ	-4116
▁فَسَبِّحْ	-4117
▁لَغَفُورٌ	-4118
▁لَيْتَنِي	-4119
▁وَأَزْوَا	-4120
▁وَرِضْوَا	-4121
▁وَعُيُونٍ	-4122
▁وَقَالَتِ	-4123
▁وَقُولُوا	-4124
▁وَيُعَلِّ	-4125
▁السَّعِيرِ	-4126
▁النَّبِيِّ	-4127
▁الْغَنِيُّ	-4128
▁الْقُرْآنُ	-4129
▁الْكِتَابُ	-4130
▁الْمَسِيحُ	-4131
▁الْمُقَرَّ	-4132
▁الْمُنكَرِ	-4133
▁تَأْكُلُوا	-4134
▁تُحِبُّونَ	-4135
▁خَلَقَكُمْ	-4136
▁عَرَبِيًّا	-4137
▁كَافِرِينَ	-4138
▁لِيَجْزِيَ	-4139
▁وَأَهْلَهُ	-4140
▁وَالْإِنسِ	-4141
▁وَجَعَلُوا	-4142
▁وَنَذِيرًا	-4143
▁وَهَارُونَ	-4144
▁يَخَافُونَ	-4145
▁الشَّيَاطِي	-4146
▁الْآخِرِينَ	-4147
▁الْأَعْلَىٰ	-4148
▁بِسُلْطَانٍ	-4149
▁تَتَّبِعُوا	-4150
▁تُحْشَرُونَ	-4151
▁تُرْحَمُونَ	-4152
▁عَلَيْهِمَا	-4153
▁فَالْيَوْمَ	-4154
▁قُلُوبِكُمْ	-4155
▁مُؤْمِنِينَ	-4156
▁وَأَصْحَابُ	-4157
▁وَأَقَامُوا	-4158
▁وَالْأَرْضُ	-4159
▁وَالْبَحْرِ	-4160
▁وَتَتَّقُوا	-4161
▁وَوَهَبْنَا	-4162
▁يَعْرِفُونَ	-4163
▁يُبْعَثُونَ	-4164
▁آتَيْنَاهُمُ	-4165
▁أَيْدِيَهُمْ	-4166
▁الْأَعْرَابِ	-4167
▁الْأَمْثَالَ	-4168
▁فَأَنجَيْنَا	-4169
▁فَكَذَّبُوهُ	-4170
▁لَّعَلَّكُمْ	-4171
▁وَبَيْنَكُمْ	-4172
▁يَتَّبِعُونَ	-4173
▁أَمْوَالَهُمْ	-4174
▁الطَّيِّبَاتِ	-4175
▁وَأَنفُسِهِمْ	-4176
▁وَأَوْحَيْنَا	-4177
▁الْمَلَائِكَةِ	-4178
▁الْمُخْلَصِينَ	-4179
▁فَأَخَذَتْهُمُ	-4180
▁وَإِسْمَاعِيلَ	-4181
▁بِأَمْوَالِهِمْ	-4182
ظٍ	-4183
يٌ	-4184
صًا	-4185
صُو	-4186
لٌّ	-4187
لٍّ	-4188
وَى	-4189
▁حم	-4190
ءُوا	-4191
ئِنُ	-4192
بْرَ	-4193
بْرِ	-4194
بْلَ	-4195
تْرَ	-4196
تْلُ	-4197
جَعُ	-4198
جَلٍ	-4199
حَةُ	-4200
حِرٌ	-4201
حْذَ	-4202
دَمُ	-4203
رَفَ	-4204
رَمَ	-4205
رِثُ	-4206
رْزُ	-4207
رْهُ	-4208
زْرَ	-4209
سَسْ	-4210
سْنَ	-4211
صُوا	-4212
ضَةً	-4213
طَلَ	-4214
عِدَ	-4215
عِظُ	-4216
عِهِ	-4217
عْبَ	-4218
فَةُ	-4219
فِخَ	-4220
فِهِ	-4221
فًّا	-4222
فْسَ	-4223
قْطَ	-4224
كِرَ	-4225
كْبَ	-4226
كْرِ	-4227
كْمُ	-4228
لًّا	-4229
لْعَ	-4230
لْنَ	-4231
مِعُ	-4232
مْتُ	-4233
مْسُ	-4234
هْلَ	-4235
يًّا	-4236
يْلَ	-4237
َانِ	-4238
ُّمْ	-4239
▁أَم	-4240
▁بِآ	-4241
▁جُن	-4242
▁حَظ	-4243
▁سُن	-4244
▁ضَا	-4245
▁فَج	-4246
▁لِآ	-4247
أْنَا	-4248
ؤْيَا	-4249
بُلًا	-4250
بُّوا	-4251
تُكُم	-4252
تَّةِ	-4253
ثَبِّ	-4254
جِيلَ	-4255
جْرًا	-4256
حْنَا	-4257
دُهُم	-4258
ذَابِ	-4259
رَانَ	-4260
رَنَّ	-4261
رِهَا	-4262
رْهًا	-4263
زِيدَ	-4264
زِّلَ	-4265
شَارِ	-4266
شِيِّ	-4267
شْرًا	-4268
صَوْا	-4269
عَامٌ	-4270
عُوذُ	-4271
غَوْا	-4272
فْعُو	-4273
قَادِ	-4274
قَبَّ	-4275
كَرِي	-4276
كُلٍّ	-4277
كِّرْ	-4278
لَامُ	-4279
لَوْا	-4280
مَالِ	-4281
مَانِ	-4282
مُّوا	-4283
نَاتُ	-4284
نِنَا	-4285
هَادُ	-4286
وَاقِ	-4287
وَدُّ	-4288
وُونَ	-4289
ُّوهُ	-4290
▁أَئِ	-4291
▁إِفْ	-4292
▁بَطْ	-4293
▁بُعْ	-4294
▁بُنْ	-4295
▁بِرُ	-4296
▁بِسَ	-4297
▁تَتْ	-4298
▁تَزِ	-4299
▁تَغْ	-4300
▁تَفَ	-4301
▁تَكُ	-4302
▁تَهْ	-4303
▁تَوْ	-4304
▁تُقَ	-4305
▁رِجْ	-4306
▁رَّا	-4307
▁سَعْ	-4308
▁سَكَ	-4309
▁صَرْ	-4310
▁ضِعْ	-4311
▁طَّا	-4312
▁عَمِ	-4313
▁فَرْ	-4314
▁فَظَ	-4315
▁فَلْ	-4316
▁فَنِ	-4317
▁لَأُ	-4318
▁لَحَ	-4319
▁لَهَ	-4320
▁لَيُ	-4321
▁نَفَ	-4322
▁وَحْ	-4323
▁وَدَ	-4324
▁وَسِ	-4325
▁وَفِ	-4326
▁يَتْ	-4327
أَيِّن	-4328
بُورًا	-4329
بِطَتْ	-4330
بِكُمْ	-4331
بْكُمْ	-4332
تِيلًا	-4333
حُورًا	-4334
دُهُمْ	-4335
ذِرُوا	-4336
رُكُمْ	-4337
رِيًّا	-4338
سَمُوا	-4339
سْمَعُ	-4340
صِيرًا	-4341
صِيلًا	-4342
عَوْنَ	-4343
فَرُوا	-4344
فِرُوا	-4345
قِيًّا	-4346
كَرُوا	-4347
كُرُوا	-4348
كُنُوا	-4349
لِحُوا	-4350
لِيلًا	-4351
نَجِّي	-4352
نَّكُم	-4353
وْهُمْ	-4354
يَيْنِ	-4355
▁آدَمُ	-4356
▁أَذًى	-4357
▁أَمَا	-4358
▁ادْعُ	-4359
▁الْخُ	-4360
▁الْفُ	-4361
▁بِسُو	-4362
▁بِفَا	-4363
▁تَرَا	-4364
▁تَنتَ	-4365
▁تَنكِ	-4366
▁تَنَا	-4367
▁ثَوَا	-4368
▁ثِيَا	-4369
▁سُوءَ	-4370
▁شَرَا	-4371
▁ظَاهِ	-4372
▁عَامِ	-4373
▁فَنَا	-4374
▁فَهُم	-4375
▁قَانِ	-4376
▁كَرَّ	-4377
▁لِبَا	-4378
▁مَعَا	-4379
▁مِائَ	-4380
▁مَّحْ	-4381
▁مَّقْ	-4382
▁نَبَا	-4383
▁هُنَّ	-4384
▁وَصِي	-4385
▁وَلُو	-4386
▁وَلِل	-4387
▁وَنُو	-4388
▁وَيُو	-4389
▁يَنطِ	-4390
▁يُقِي	-4391
ؤَاخِذُ	-4392
تَكَبِّ	-4393
دْبَارَ	-4394
ذَقْنَا	-4395
ذَكَّرُ	-4396
رَهُنَّ	-4397
ظَرُونَ	-4398
عُوهُمْ	-4399
عِبَادِ	-4400
فَعْنَا	-4401
قَيْنَا	-4402
لَهُنَّ	-4403
مُوسَىٰ	-4404
نَافِعُ	-4405
نَزَّلُ	-4406
نَعُونَ	-4407
هِدِينَ	-4408
وَاهُمْ	-4409
ُلْقِيَ	-4410
▁أَعْيُ	-4411
▁أَمَّن	-4412
▁أَمْرٍ	-4413
▁اتَّقَ	-4414
▁بَأْسَ	-4415
▁بِخَيْ	-4416
▁بِعِلْ	-4417
▁تَجْهَ	-4418
▁تَخْشَ	-4419
▁تَذْكِ	-4420
▁تُطِعْ	-4421
▁جِئْتَ	-4422
▁خَشْيَ	-4423
▁خَلْقٍ	-4424
▁خَلْقَ	-4425
▁رُسُلٌ	-4426
▁سَوْفَ	-4427
▁صَفًّا	-4428
▁صِدْقٍ	-4429
▁ظَلَمْ	-4430
▁فَقَدِ	-4431
▁فَوْقِ	-4432
▁قَوْلَ	-4433
▁قُضِيَ	-4434
▁لَدَيْ	-4435
▁مَالًا	-4436
▁مَعَكَ	-4437
▁مَنَعَ	-4438
▁مِنِّي	-4439
▁مَّاءٍ	-4440
▁نَسُوا	-4441
▁نُوحًا	-4442
▁وَأَيْ	-4443
▁وَرَزَ	-4444
▁وَرِزْ	-4445
▁وَعْدُ	-4446
▁وَكَمْ	-4447
▁وَلَقَ	-4448
▁وَيَبْ	-4449
▁وَيَحْ	-4450
▁وَيَمْ	-4451
▁يَأْخُ	-4452
▁يَبْتَ	-4453
▁يَبْخَ	-4454
▁يَدَيْ	-4455
▁يَعْصِ	-4456
▁يَكْتُ	-4457
▁يَلْعَ	-4458
▁يُبْدِ	-4459
▁يُخْرِ	-4460
▁يُرِدْ	-4461
▁يُعْرَ	-4462
تُمُوهَا	-4463
تَّعْنَا	-4464
جْعَلُوا	-4465
سِرُّونَ	-4466
صَّلَاةِ	-4467
ظُنُّونَ	-4468
فْعُولًا	-4469
كَرِيَّا	-4470
نَفْسِهِ	-4471
▁أَعَدَّ	-4472
▁أَقُولُ	-4473
▁أَلْوَا	-4474
▁أَمْثَا	-4475
▁أُحِلَّ	-4476
▁أُرِيدُ	-4477
▁إِثْمًا	-4478
▁اغْفِرْ	-4479
▁السَّبْ	-4480
▁الصَّدَ	-4481
▁الْأَرْ	-4482
▁الْفَضْ	-4483
▁الْمَرْ	-4484
▁الْمَشْ	-4485
▁بُنْيَا	-4486
▁بِالنَّ	-4487
▁تَبْدِي	-4488
▁تُقَاتِ	-4489
▁ثَمُودُ	-4490
▁جَاءَهُ	-4491
▁حَمِيمٍ	-4492
▁حِسَابٍ	-4493
▁خَلَوْا	-4494
▁خَلْقًا	-4495
▁ذُنُوبَ	-4496
▁رُسُلًا	-4497
▁سَبِيلَ	-4498
▁سَخَّرَ	-4499
▁سُورَةٌ	-4500
▁سِتَّةِ	-4501
▁شَدِيدٍ	-4502
▁طَائِفَ	-4503
▁ظُلْمًا	-4504
▁عَالِمُ	-4505
▁عِوَجًا	-4506
▁غَنِيٌّ	-4507
▁فَبَشِّ	-4508
▁كَثِيرٍ	-4509
▁مَتَاعٌ	-4510
▁مِّثْلَ	-4511
▁مِّيثَا	-4512
▁نَادَىٰ	-4513
▁نَصِيرٍ	-4514
▁وَاسِعٌ	-4515
▁وَاشْرَ	-4516
▁وَالزَّ	-4517
▁وَالضَّ	-4518
▁وَالنُّ	-4519
▁وَالْإِ	-4520
▁وَحَاقَ	-4521
▁وَسَاءَ	-4522
▁وَعْدًا	-4523
▁وَغَرَّ	-4524
▁وُجُوهُ	-4525
▁يَتْلُو	-4526
▁يَسِيرٌ	-4527
▁يَمَسُّ	-4528
▁يُنَزِّ	-4529
▁يُوسُفُ	-4530
تَّقْوَىٰ	-4531
حْضَرُونَ	-4532
عْبُدُونَ	-4533
فْسِدُونَ	-4534
▁آتَيْتُم	-4535
▁آمِنِينَ	-4536
▁أَبَانَا	-4537
▁أَمْرِهِ	-4538
▁أَوَلَوْ	-4539
▁أَوْلَىٰ	-4540
▁إِنَّكُم	-4541
▁الدِّينُ	-4542
▁الرِّبَا	-4543
▁الظَّنَّ	-4544
▁الْمَاءَ	-4545
▁الْيَمِّ	-4546
▁بُكْرَةً	-4547
▁بِنِعْمَ	-4548
▁تَجِدُوا	-4549
▁تَعْلَمُ	-4550
▁خِفْتُمْ	-4551
▁رِجَالًا	-4552
▁سَأَلْتَ	-4553
▁سَبَقَتْ	-4554
▁سَعِيرًا	-4555
▁سَلَامًا	-4556
▁عَزِيزًا	-4557
▁عِندَنَا	-4558
▁عِندِنَا	-4559
▁فَإِمَّا	-4560
▁فَبِئْسَ	-4561
▁فَجَعَلَ	-4562
▁فَكُلُوا	-4563
▁فَلَيْسَ	-4564
▁قُلْتُمْ	-4565
▁لَّدُنكَ	-4566
▁مُؤْمِنٌ	-4567
▁نَفْسَهُ	-4568
▁نِعْمَةَ	-4569
▁نَّشَاءُ	-4570
▁وَأَرْجُ	-4571
▁وَأَصْلَ	-4572
▁يَسِيرًا	-4573
▁يَعْمَلْ	-4574
▁يَفْعَلْ	-4575
▁يَمْسَسْ	-4576
▁يُتْلَىٰ	-4577
▁يُخْرِجُ	-4578
بْرَاهِيمَ	-4579
بْعُوثُونَ	-4580
تَّكِئِينَ	-4581
سَارِعُونَ	-4582
نَبِّئُهُم	-4583
▁آبَاؤُنَا	-4584
▁أَأَنتُمْ	-4585
▁أَنفَقُوا	-4586
▁إِلَيْكُم	-4587
▁إِيمَانًا	-4588
▁اعْمَلُوا	-4589
▁التَّوَّا	-4590
▁الرُّسُلُ	-4591
▁الْأَمْرَ	-4592
▁الْفَصْلِ	-4593
▁الْفَضْلِ	-4594
▁الْقَوْلَ	-4595
▁الْوَعْدُ	-4596
▁اهْتَدَىٰ	-4597
▁بِالَّتِي	-4598
▁بِلِقَاءِ	-4599
▁ذُكِّرُوا	-4600
▁رُسُلُنَا	-4601
▁شُعَيْبًا	-4602
▁قَبْلِهِم	-4603
▁مُؤْمِنًا	-4604
▁نَّفْسِهِ	-4605
▁وَأَعَدَّ	-4606
▁وَاصْبِرْ	-4607
▁وَسَبِّحْ	-4608
▁وَظَنُّوا	-4609
▁وَكُنتُمْ	-4610
▁يَسِيرُوا	-4611
▁يَصِفُونَ	-4612
▁يُؤَاخِذُ	-4613
▁يُعِيدُهُ	-4614
وَالِدَيْنِ	-4615
▁افْتَرَاهُ	-4616
▁الرِّيَاحَ	-4617
▁الْأُمُورُ	-4618
▁الْجِبَالِ	-4619
▁الْقُرُونِ	-4620
▁الْكَبِيرُ	-4621
▁الْمُبِينِ	-4622
▁بِرَحْمَةٍ	-4623
▁تَعَالَوْا	-4624
▁تَعْبُدُوا	-4625
▁تَقْتُلُوا	-4626
▁ظَالِمُونَ	-4627
▁فَاسِقُونَ	-4628
▁لَدَيْهِمْ	-4629
▁لِنَفْسِهِ	-4630
▁وَأَبْقَىٰ	-4631
▁وَاتَّبَعَ	-4632
▁وَذِكْرَىٰ	-4633
▁وَيَغْفِرْ	-4634
▁يَنصُرُونَ	-4635
▁أَوْلِيَاءُ	-4636
▁السَّحَرَةُ	-4637
▁الْأَعْمَىٰ	-4638
▁الْقَرْيَةِ	-4639
▁بِالْهُدَىٰ	-4640
▁تَوَكَّلْتُ	-4641
▁تُشْرِكُونَ	-4642
▁جَاءَتْهُمُ	-4643
▁جَعَلْنَاهُ	-4644
▁دِيَارِهِمْ	-4645
▁سُلَيْمَانَ	-4646
▁فَأَخَذْنَا	-4647
▁فَاذْكُرُوا	-4648
▁مُخْلِصِينَ	-4649
▁مُسْلِمُونَ	-4650
▁مُسْلِمِينَ	-4651
▁نَّاصِرِينَ	-4652
▁وَاللَّيْلِ	-4653
▁وَتَرَكْنَا	-4654
▁وَتَعَالَىٰ	-4655
▁وَتَوَكَّلْ	-4656
▁وَتَوَلَّىٰ	-4657
▁وَيُعَلِّمُ	-4658
▁يَأْكُلُونَ	-4659
▁يَتَذَكَّرُ	-4660
▁يَجْحَدُونَ	-4661
▁يَعْمَهُونَ	-4662
▁التَّوْرَاةِ	-4663
▁الْخَيْرَاتِ	-4664
▁فَأَخَذَهُمُ	-4665
▁مُّسْلِمُونَ	-4666
▁وَالْأَبْصَا	-4667
▁وَرَحْمَتُهُ	-4668
▁يُجَادِلُونَ	-4669
▁أَهْوَاءَهُمْ	-4670
▁أَيْمَانِهِمْ	-4671
▁السَّمَاوَاتُ	-4672
▁الشَّاكِرِينَ	-4673
▁الْبَيِّنَاتُ	-4674
▁الْغَابِرِينَ	-4675
▁بِذُنُوبِهِمْ	-4676
▁بِمُعْجِزِينَ	-4677
▁فَأَخْرَجْنَا	-4678
▁فَأَرْسَلْنَا	-4679
▁وَأَعْتَدْنَا	-4680
▁الْمُرْسَلُونَ	-4681
▁الْمُسْرِفِينَ	-4682
▁سَيِّئَاتِهِمْ	-4683
▁فَيُنَبِّئُكُم	-4684
▁وَالْيَتَامَىٰ	-4685
▁يَتَذَكَّرُونَ	-4686
▁يَتَسَاءَلُونَ	-4687
▁الْمُنَافِقُونَ	-4688
▁لِلْمُؤْمِنِينَ	-4689
▁لِّلْكَافِرِينَ	-4690
▁لِّلْمُتَّقِينَ	-4691
▁يَسْتَكْبِرُونَ	-4692
غٌ	-4693
آهُ	-4694
رُم	-4695
زُن	-4696
شًا	-4697
شُو	-4698
عُم	-4699
غًا	-4700
هَّ	-4701
ُّم	-4702
▁طِ	-4703
أْسِ	-4704
ؤْلُ	-4705
بُرَ	-4706
بُرِ	-4707
بِعْ	-4708
بْلِ	-4709
تَتْ	-4710
تِحَ	-4711
جَدَ	-4712
جُّو	-4713
جْلَ	-4714
حَةً	-4715
حَكَ	-4716
حْتَ	-4717
خْلُ	-4718
دَأُ	-4719
دْلِ	-4720
ذَرَ	-4721
رِبَ	-4722
رِكَ	-4723
سْتُ	-4724
سْجُ	-4725
شَرِ	-4726
صِيَ	-4727
صْرَ	-4728
ضَرَ	-4729
ضْحَ	-4730
طِعِ	-4731
ظْهَ	-4732
ظْهِ	-4733
عْجَ	-4734
عْرَ	-4735
عْضِ	-4736
فُرُ	-4737
قَةً	-4738
قَةَ	-4739
قِطْ	-4740
قِمْ	-4741
قَّا	-4742
قْعُ	-4743
كَىٰ	-4744
كِرٍ	-4745
لَغْ	-4746
لُّو	-4747
مَةً	-4748
مُمْ	-4749
نِّي	-4750
هَبَ	-4751
هَرَ	-4752
هَىٰ	-4753
وَةً	-4754
وْءِ	-4755
يُّو	-4756
ُلُّ	-4757
ُوَف	-4758
ُّهُ	-4759
▁بِّ	-4760
أُنثَ	-4761
أْتِي	-4762
ئِنَا	-4763
بَاتٍ	-4764
بَغِي	-4765
بُوكَ	-4766
تَّقِ	-4767
تُّمْ	-4768
تْنَا	-4769
ثِيرٌ	-4770
جَانِ	-4771
جُودِ	-4772
حَاطَ	-4773
حِيطٌ	-4774
دَاءً	-4775
دَاتٍ	-4776
دَامَ	-4777
ذِيقَ	-4778
رَاتٌ	-4779
رَافِ	-4780
رَانِ	-4781
رَسُو	-4782
رَوْا	-4783
زُلًا	-4784
سِينَ	-4785
شَابِ	-4786
شَقَّ	-4787
صَادِ	-4788
صِيَا	-4789
ضْنَا	-4790
ظَاهِ	-4791
قَامٍ	-4792
قِيمَ	-4793
قْتُم	-4794
لَهُم	-4795
لُونِ	-4796
مَانُ	-4797
مَّةً	-4798
نَيَّ	-4799
هُنَا	-4800
هِينَ	-4801
هْتَا	-4802
وْهَا	-4803
يْهَا	-4804
َاثًا	-4805
ُهُمْ	-4806
ُّورَ	-4807
▁أَسَ	-4808
▁أَقَ	-4809
▁بَدَ	-4810
▁بَرْ	-4811
▁بَقَ	-4812
▁بِتَ	-4813
▁تَصِ	-4814
▁تَطْ	-4815
▁تَمُ	-4816
▁تُدْ	-4817
▁تُلْ	-4818
▁تُمْ	-4819
▁حَمْ	-4820
▁خَمْ	-4821
▁خُلِ	-4822
▁خِزْ	-4823
▁رَقَ	-4824
▁سَقَ	-4825
▁سَمْ	-4826
▁شَطْ	-4827
▁شِرْ	-4828
▁شِيَ	-4829
▁عَبَ	-4830
▁عَدَ	-4831
▁فَأُ	-4832
▁فَتْ	-4833
▁قَصَ	-4834
▁كَذَ	-4835
▁لِسُ	-4836
▁لِنُ	-4837
▁مَقْ	-4838
▁مُشْ	-4839
▁نَدْ	-4840
▁نَصَ	-4841
▁نُؤْ	-4842
▁نُّو	-4843
▁وَخُ	-4844
▁وَقْ	-4845
▁وَوُ	-4846
▁يَغُ	-4847
▁يَمُ	-4848
▁يُتَ	-4849
▁يُحَ	-4850
بَانًا	-4851
بِّنَا	-4852
تَاعًا	-4853
جَيْنِ	-4854
جْزَىٰ	-4855
خْرُجْ	-4856
دِلُوا	-4857
دِّينِ	-4858
دْخِلَ	-4859
رْسِلْ	-4860
شُّهَد	-4861
غْفِرَ	-4862
غْفِرُ	-4863
فَقُوا	-4864
فْئِدَ	-4865
قُهُمْ	-4866
كُونَا	-4867
كِهَةٍ	-4868
مَنُوا	-4869
نَهُمُ	-4870
نُكُمْ	-4871
نِيَةً	-4872
هْدِيَ	-4873
وَّابٌ	-4874
وْعِظَ	-4875
▁أَثِي	-4876
▁أَيَّ	-4877
▁أُمِّ	-4878
▁ابْنِ	-4879
▁ارْتَ	-4880
▁اسْتِ	-4881
▁اكْتَ	-4882
▁الْوُ	-4883
▁اهْبِ	-4884
▁بَارِ	-4885
▁بَالِ	-4886
▁بَشِي	-4887
▁بِقُو	-4888
▁تِجَا	-4889
▁جُلُو	-4890
▁حَسِي	-4891
▁حَقٍّ	-4892
▁حُجَّ	-4893
▁خَائِ	-4894
▁دَائِ	-4895
▁دِينِ	-4896
▁ذَاتَ	-4897
▁سَائِ	-4898
▁سَابِ	-4899
▁سَحَا	-4900
▁سَمَا	-4901
▁سَوَّ	-4902
▁شَاكِ	-4903
▁شَرٌّ	-4904
▁شِقَا	-4905
▁ظَنَّ	-4906
▁ظَهِي	-4907
▁عَاصِ	-4908
▁عَاهَ	-4909
▁عَفَا	-4910
▁عَلَّ	-4911
▁فَاطِ	-4912
▁فَسَا	-4913
▁فَصَّ	-4914
▁قِيَا	-4915
▁كَاتِ	-4916
▁كَاذِ	-4917
▁كَارِ	-4918
▁لَكُن	-4919
▁لَمَا	-4920
▁مَرْض	-4921
▁مُنتَ	-4922
▁نَعِي	-4923
▁نُوحٌ	-4924
▁وَالِ	-4925
ئِهِنَّ	-4926
بَدِّلَ	-4927
بَيَّنَ	-4928
تَدْنَا	-4929
ثِمِينَ	-4930
حِمِينَ	-4931
حْشَاءِ	-4932
دُوهُمْ	-4933
دِلُونَ	-4934
دَّكِرٍ	-4935
دِّمُوا	-4936
ذِرُونَ	-4937
ذِّكْرِ	-4938
رَحُونَ	-4939
رِيكُمْ	-4940
رْنَاهُ	-4941
زَكَّىٰ	-4942
زِقِينَ	-4943
زِينُهُ	-4944
سُقُونَ	-4945
صِمُونَ	-4946
عَذِّبَ	-4947
قُرْآنِ	-4948
كَّرُوا	-4949
مَاهُمْ	-4950
نَّكُمُ	-4951
وَيْنَا	-4952
يِّئَةِ	-4953
ُمْسِكُ	-4954
▁آمِنًا	-4955
▁أَرْضِ	-4956
▁أُمَمٍ	-4957
▁الرُّو	-4958
▁الْمِي	-4959
▁انقَلَ	-4960
▁بَعَثَ	-4961
▁بَعْضِ	-4962
▁بِظُلْ	-4963
▁بِقَدَ	-4964
▁بِكُمُ	-4965
▁تَأْخُ	-4966
▁تَبِعَ	-4967
▁تَجِدُ	-4968
▁حَافِظ	-4969
▁خَلْقِ	-4970
▁ذُكِرَ	-4971
▁رَأَىٰ	-4972
▁زَوْجٍ	-4973
▁سَيِّئ	-4974
▁سُوءًا	-4975
▁سِرًّا	-4976
▁ضَرَبَ	-4977
▁عَنِّي	-4978
▁عِندِي	-4979
▁فَتَمَ	-4980
▁فَطَرَ	-4981
▁قُتِلَ	-4982
▁كَيْدَ	-4983
▁لِنَفْ	-4984
▁لَّكُم	-4985
▁مَلَكٌ	-4986
▁مُبْصِ	-4987
▁مِثْلُ	-4988
▁مَّرِي	-4989
▁مَّقَا	-4990
▁نَبَأَ	-4991
▁نِّسَا	-4992
▁هُودًا	-4993
▁وَآتَا	-4994
▁وَأَسَ	-4995
▁وَرَأَ	-4996
▁وَسَيَ	-4997
▁وَكُفْ	-4998
▁وَلَأُ	-4999
▁وَلَبِ	-5000
▁وَمَنِ	-5001
▁وَيَتَ	-5002
▁يَسْأَ	-5003
▁يَشْتَ	-5004
▁يَعْتَ	-5005
▁يُذْهِ	-5006
▁يُطِعِ	-5007
إِنسَانِ	-5008
دَاهُمَا	-5009
رَّفْنَا	-5010
عِدُهُمْ	-5011
قُولَنَّ	-5012
مَّرْنَا	-5013
وَلَّوْا	-5014
▁آمَنتُم	-5015
▁أَتَاكَ	-5016
▁أَضَلَّ	-5017
▁أَضَلُّ	-5018
▁أَعُوذُ	-5019
▁أَفْوَا	-5020
▁إِصْلَا	-5021
▁السِّجْ	-5022
▁النَّجْ	-5023
▁الْأَخْ	-5024
▁الْأَشْ	-5025
▁الْحَرْ	-5026
▁الْخُلْ	-5027
▁الْكُبْ	-5028
▁بَغْيًا	-5029
▁بُطُونِ	-5030
▁بُنَيَّ	-5031
▁بِالشَّ	-5032
▁بِالْإِ	-5033
▁بِالْبَ	-5034
▁بِجَهَا	-5035
▁تَقُولَ	-5036
▁تُرَابٍ	-5037
▁ثَمُودَ	-5038
▁جَاءُوا	-5039
▁جَدِيدٍ	-5040
▁حُدُودَ	-5041
▁حُدُودُ	-5042
▁ذَرَّةٍ	-5043
▁رَءُوفٌ	-5044
▁رَأَوْا	-5045
▁رَجُلًا	-5046
▁رَسُولَ	-5047
▁رِجَالٌ	-5048
▁سَاعَةً	-5049
▁سَبِيلٍ	-5050
▁شَيْطَا	-5051
▁صِرَاطٌ	-5052
▁عَبْدًا	-5053
▁عَلِيمٍ	-5054
▁عَيْنًا	-5055
▁فَاعْتَ	-5056
▁فَبِمَا	-5057
▁قَرِيبٍ	-5058
▁قَرْضًا	-5059
▁قُوَّةٍ	-5060
▁كَالْمُ	-5061
▁كَيْدًا	-5062
▁لَكَانَ	-5063
▁لَهُمَا	-5064
▁لَّمِنَ	-5065
▁لَّمَّا	-5066
▁مَتَاعُ	-5067
▁مُبَشِّ	-5068
▁مِلَّةَ	-5069
▁نَقُولُ	-5070
▁نُزِّلَ	-5071
▁نَّفْسٍ	-5072
▁هَوَاهُ	-5073
▁وَاحِدٍ	-5074
▁وَاسْمَ	-5075
▁وَالدَّ	-5076
▁وَبِمَا	-5077
▁وُجُوهٌ	-5078
▁يَخَافُ	-5079
▁يَزِيدُ	-5080
▁يَضِلُّ	-5081
▁يَكَادُ	-5082
▁يَمْشِي	-5083
▁يَنصُرُ	-5084
▁يُرَدُّ	-5085
▁يُسْرًا	-5086
بْشِرُونَ	-5087
جَاهِدُوا	-5088
جْعَلْنِي	-5089
خْرَجُونَ	-5090
طْمَئِنَّ	-5091
غْفِرُونَ	-5092
قْتُلُونَ	-5093
لِمَاتِهِ	-5094
لْنَاهُمْ	-5095
وَالِكُمْ	-5096
▁أَنبَاءِ	-5097
▁أَنْعَمَ	-5098
▁أَهْدَىٰ	-5099
▁أَيَّانَ	-5100
▁إِنَّنِي	-5101
▁اتَّخَذْ	-5102
▁اتَّقَوا	-5103
▁الصِّرَا	-5104
▁النُّجُو	-5105
▁الْأَلِي	-5106
▁الْأُنثَ	-5107
▁الْغَافِ	-5108
▁الْفَسَا	-5109
▁الْقُلُو	-5110
▁الْمَاءِ	-5111
▁الْمُنتَ	-5112
▁الْوَاحِ	-5113
▁الْوَارِ	-5114
▁الْيَقِي	-5115
▁بَعِيدًا	-5116
▁بِخَيْرٍ	-5117
▁بِشَيْءٍ	-5118
▁بِعَهْدِ	-5119
▁تُرْجَعُ	-5120
▁جَاءَنَا	-5121
▁حَبِطَتْ	-5122
▁رَبِّهَا	-5123
▁رَقَبَةٍ	-5124
▁سَمِعُوا	-5125
▁ضَلَالًا	-5126
▁طَيِّبًا	-5127
▁عَمِلَتْ	-5128
▁فَإِنِّي	-5129
▁فَتَنَّا	-5130
▁فَلَهُمْ	-5131
▁فَلْيَأْ	-5132
▁قَدِيرًا	-5133
▁كَلِمَةٌ	-5134
▁لَقُضِيَ	-5135
▁مَّعْدُو	-5136
▁مَّكَانٍ	-5137
▁نَعْلَمُ	-5138
▁وَأَوْرَ	-5139
▁وَالْعَا	-5140
▁وَجَنَّا	-5141
▁وَجْهَكَ	-5142
▁وَجْهَهُ	-5143
▁وَحْدَهُ	-5144
▁وَخَلَقَ	-5145
▁وَلَيْسَ	-5146
▁وَلُوطًا	-5147
▁وَمِنكُم	-5148
▁وَنُذُرِ	-5149
▁يَأْكُلُ	-5150
▁يَبْدَأُ	-5151
▁يَبْعَثُ	-5152
▁يَبْلُغَ	-5153
▁يَسْعَىٰ	-5154
▁يَغْفِرَ	-5155
▁يَنبَغِي	-5156
▁يُشْرِكْ	-5157
دْخِلُهُمْ	-5158
▁أَتَّبِعُ	-5159
▁أَذَقْنَا	-5160
▁أَصَابَتْ	-5161
▁أَفَأَنتَ	-5162
▁أَندَادًا	-5163
▁أَهْلَهَا	-5164
▁أَوْلِيَا	-5165
▁إِسْحَاقَ	-5166
▁اسْجُدُوا	-5167
▁الذِّكْرَ	-5168
▁الرُّسُلِ	-5169
▁السَّوْءِ	-5170
▁الطَّاغُو	-5171
▁الطَّيْرِ	-5172
▁النَّفْسَ	-5173
▁الْإِثْمِ	-5174
▁الْحُكْمُ	-5175
▁الْخَيْرِ	-5176
▁الْعِجْلَ	-5177
▁الْعِلْمُ	-5178
▁الْغَيْبَ	-5179
▁الْفِتْنَ	-5180
▁الْقَهَّا	-5181
▁الْكَيْلَ	-5182
▁الْكُفْرَ	-5183
▁الْمَلِكُ	-5184
▁الْمُعْتَ	-5185
▁بَأْسُنَا	-5186
▁بِقُوَّةٍ	-5187
▁بِيَمِينِ	-5188
▁تَبَارَكَ	-5189
▁تَتَّبِعْ	-5190
▁خَزَائِنُ	-5191
▁دِينَهُمْ	-5192
▁رُسُلَنَا	-5193
▁سَيِّئَةٌ	-5194
▁شُرَكَاءُ	-5195
▁طَائِفَةٌ	-5196
▁طَيِّبَةً	-5197
▁عَلِمْنَا	-5198
▁فَاغْفِرْ	-5199
▁فَاللَّهُ	-5200
▁فَتَكُونَ	-5201
▁فَقُلْنَا	-5202
▁فَلِلَّهِ	-5203
▁قَبْلَهُم	-5204
▁لِلْحَقِّ	-5205
▁لَّدُنَّا	-5206
▁لِّأُولِي	-5207
▁مِثْقَالَ	-5208
▁مِّثْلِهِ	-5209
▁نُّؤْمِنَ	-5210
▁وَأَبْصَا	-5211
▁وَإِنَّكَ	-5212
▁وَاحِدَةٍ	-5213
▁وَالْبَغْ	-5214
▁وَامْرَأَ	-5215
▁وَبَنِينَ	-5216
▁وَقُلْنَا	-5217
▁وَكَثِيرٌ	-5218
▁وَنَادَىٰ	-5219
▁وَيْلَنَا	-5220
▁يَأْتُونَ	-5221
▁يَأْتِينَ	-5222
▁يَتَوَكَّ	-5223
▁يَتْلُونَ	-5224
▁يُسَبِّحُ	-5225
▁يُكَذِّبُ	-5226
▁آذَانِهِمْ	-5227
▁أَجَلُهُمْ	-5228
▁أَجْرُهُمْ	-5229
▁إِحْسَانًا	-5230
▁إِلَيْكُمُ	-5231
▁اتَّبِعُوا	-5232
▁السَّبِيلَ	-5233
▁السُّجُودِ	-5234
▁الشِّمَالِ	-5235
▁الْجَنَّةُ	-5236
▁الْجِبَالَ	-5237
▁الْحَدِيثِ	-5238
▁الْحَرَامَ	-5239
▁الْحَمِيدُ	-5240
▁الْخَبِيرُ	-5241
▁الْيَهُودُ	-5242
▁بَعْضَهُمْ	-5243
▁بَعْضُكُمْ	-5244
▁تَدْخُلُوا	-5245
▁تَقُولُونَ	-5246
▁حَرَّمْنَا	-5247
▁خَلْفَهُمْ	-5248
▁طَيِّبَاتِ	-5249
▁طَّائِفَةٌ	-5250
▁غَافِلُونَ	-5251
▁فَأَتْبَعَ	-5252
▁فَأَصْبَحَ	-5253
▁فَاسِقِينَ	-5254
▁فَاعِلِينَ	-5255
▁فَذَرْهُمْ	-5256
▁فَوْقَهُمْ	-5257
▁فَوْقِهِمْ	-5258
▁مُّدَّكِرٍ	-5259
▁نَزَّلْنَا	-5260
▁وَأَصْلَحَ	-5261
▁وَأُمِرْتُ	-5262
▁وَالْجِبَا	-5263
▁وَكَأَيِّن	-5264
▁وَمَلَئِهِ	-5265
▁يَخْرُجُوا	-5266
▁يَخْشَوْنَ	-5267
▁يُحِبُّونَ	-5268
▁يُنظَرُونَ	-5269
▁أَعْتَدْنَا	-5270
▁التَّقْوَىٰ	-5271
▁التَّوَّابُ	-5272
▁الذِّكْرَىٰ	-5273
▁الصَّيْحَةُ	-5274
▁بِاللَّيْلِ	-5275
▁بِالَّذِينَ	-5276
▁بِالْعَدْلِ	-5277
▁بِعِبَادِهِ	-5278
▁بِمَعْرُوفٍ	-5279
▁تَحْسَبَنَّ	-5280
▁تَفْعَلُونَ	-5281
▁تَكْتُمُونَ	-5282
▁تَهْتَدُونَ	-5283
▁سَأَلْتَهُم	-5284
▁فَاعْلَمُوا	-5285
▁فَيَنظُرُوا	-5286
▁مِّثْلُكُمْ	-5287
▁وَأَطَعْنَا	-5288
▁وَاشْرَبُوا	-5289
▁وَالْأَقْرَ	-5290
▁وَجَاهَدُوا	-5291
▁وَرَفَعْنَا	-5292
▁وُجُوهَكُمْ	-5293
▁يَبْتَغُونَ	-5294
▁يَمْكُرُونَ	-5295
▁يُؤْفَكُونَ	-5296
▁يُرْجَعُونَ	-5297
▁يُعْلِنُونَ	-5298
▁آتَيْنَاهُمْ	-5299
▁أُجُورَهُنَّ	-5300
▁الضَّالِّينَ	-5301
▁بِالْعَذَابِ	-5302
▁لِلْإِنسَانِ	-5303
▁لَّعَلَّهُمْ	-5304
▁مَوَازِينُهُ	-5305
▁مُّجْرِمِينَ	-5306
▁وَالْكِتَابِ	-5307
▁وَلِيَعْلَمَ	-5308
▁يُسَارِعُونَ	-5309
▁أَيْمَانُكُمْ	-5310
▁الرَّاحِمِينَ	-5311
▁الشَّاهِدِينَ	-5312
▁الْأَوَّلُونَ	-5313
▁الْجَاهِلِينَ	-5314
▁الْمُتَّقُونَ	-5315
▁بِمُؤْمِنِينَ	-5316
▁تَخْتَلِفُونَ	-5317
▁تَوَلَّيْتُمْ	-5318
▁خَلَقْنَاكُمْ	-5319
▁وَاسْتَغْفِرْ	-5320
▁وَالْمِيزَانَ	-5321
▁يَذَّكَّرُونَ	-5322
▁يَسْتَمِعُونَ	-5323
▁الْأُنثَيَيْنِ	-5324
▁فَأَنجَيْنَاهُ	-5325
▁الْمُكَذِّبِينَ	-5326
▁تَسْتَعْجِلُونَ	-5327
▁وَالْمَسَاكِينِ	-5328
▁وَيَسْأَلُونَكَ	-5329
ئٍ	-5330
خٌ	-5331
زٌ	-5332
صٌ	-5333
وٌ	-5334
تُّ	-5335
حَّ	-5336
ضُو	-5337
ضُّ	-5338
عَف	-5339
نبِ	-5340
نٌّ	-5341
وًى	-5342
يُّ	-5343
▁دِ	-5344
▁زِ	-5345
ئُوا	-5346
ئِنِ	-5347
بَطَ	-5348
بْنَ	-5349
جِبْ	-5350
جِّن	-5351
حِمَ	-5352
خَرُ	-5353
دتَّ	-5354
دْخَ	-5355
رِئٍ	-5356
زَنَ	-5357
زْلِ	-5358
سَتْ	-5359
سُفَ	-5360
شَىٰ	-5361
شْهَ	-5362
صَىٰ	-5363
صَّا	-5364
صْفُ	-5365
صْنَ	-5366
ضِبَ	-5367
ضْطُ	-5368
طَىٰ	-5369
طْبُ	-5370
غْتَ	-5371
فَةٌ	-5372
فِقُ	-5373
قِمِ	-5374
قْرِ	-5375
كَةِ	-5376
كُرُ	-5377
كِنْ	-5378
كْثَ	-5379
لَتِ	-5380
لِكِ	-5381
لِهَ	-5382
مَلُ	-5383
مِيَ	-5384
مْلَ	-5385
هَرُ	-5386
هِدَ	-5387
هْرِ	-5388
وَةٌ	-5389
وَةَ	-5390
يْأَ	-5391
يْتُ	-5392
َاتٌ	-5393
ُلِّ	-5394
ُوَا	-5395
ِنِي	-5396
▁آنَ	-5397
▁اشْ	-5398
▁الر	-5399
▁ثَا	-5400
▁دُو	-5401
▁شِي	-5402
▁طُو	-5403
▁غَا	-5404
▁نَن	-5405
▁هَل	-5406
▁وَز	-5407
ءُونَ	-5408
أْوِي	-5409
ؤْلُؤ	-5410
بَائِ	-5411
بَايِ	-5412
بُنَا	-5413
بُورِ	-5414
بِنَا	-5415
بِيدِ	-5416
بْنِي	-5417
تَوْا	-5418
تُوكَ	-5419
تِمَّ	-5420
تِهِم	-5421
تَّبَ	-5422
ثَلًا	-5423
ثَوْا	-5424
جَنَّ	-5425
جِيبُ	-5426
حَابِ	-5427
حْسِن	-5428
حْمًا	-5429
خَافُ	-5430
خَبِي	-5431
خْتَا	-5432
دتُّم	-5433
دَاهُ	-5434
دَبِّ	-5435
دَنَا	-5436
دُلُّ	-5437
ذَابُ	-5438
ذِيرٍ	-5439
رَاتُ	-5440
رُوجِ	-5441
رُونُ	-5442
رِيرُ	-5443
رِيقِ	-5444
رْعًا	-5445
زُنكَ	-5446
زْعُم	-5447
سَانٍ	-5448
سْكِي	-5449
شَدًا	-5450
صُدَّ	-5451
صِبًا	-5452
ضَاعِ	-5453
ضُّوا	-5454
ضْرِب	-5455
طُوفُ	-5456
طَّلِ	-5457
طْنَا	-5458
ظُونَ	-5459
عِدًا	-5460
عْيُن	-5461
غَيِّ	-5462
فَّةً	-5463
فَّفُ	-5464
قَاتُ	-5465
قَامَ	-5466
قَلِّ	-5467
قَهَا	-5468
قُولَ	-5469
قُونِ	-5470
قْبَى	-5471
كَاتِ	-5472
كَلَّ	-5473
كِيلٍ	-5474
كَّرَ	-5475
كْتُم	-5476
كْرَا	-5477
لَقَّ	-5478
لْمًا	-5479
لْنِي	-5480
مَّتْ	-5481
نقَلِ	-5482
نْهَا	-5483
هُمَّ	-5484
هِلَّ	-5485
هْوًا	-5486
وَاتٍ	-5487
وَارِ	-5488
وَانِ	-5489
وِينَ	-5490
وْنَا	-5491
يُوبِ	-5492
▁أَزْ	-5493
▁أَكَ	-5494
▁أُكُ	-5495
▁أُمِ	-5496
▁بَطَ	-5497
▁بِسِ	-5498
▁بِظَ	-5499
▁بِغَ	-5500
▁بِغُ	-5501
▁تَذَ	-5502
▁تَسُ	-5503
▁تَطَ	-5504
▁تِلْ	-5505
▁حَكَ	-5506
▁خُضْ	-5507
▁رَجَ	-5508
▁رُّو	-5509
▁سَأُ	-5510
▁سَتَ	-5511
▁سَخِ	-5512
▁سُرُ	-5513
▁شُفَ	-5514
▁صَبَ	-5515
▁صَلْ	-5516
▁صُحُ	-5517
▁طَوْ	-5518
▁عَرْ	-5519
▁عَصَ	-5520
▁عُقْ	-5521
▁غَفْ	-5522
▁فَخَ	-5523
▁فَسُ	-5524
▁فَغَ	-5525
▁فَنُ	-5526
▁كَال	-5527
▁لَسَ	-5528
▁لَفَ	-5529
▁لِإِ	-5530
▁لِوَ	-5531
▁مَمْ	-5532
▁مَهْ	-5533
▁مَيْ	-5534
▁مُسَ	-5535
▁نَرْ	-5536
▁وَزُ	-5537
▁يَئِ	-5538
▁يُبَ	-5539
▁يُحْ	-5540
أْخُذَ	-5541
ئِكُمُ	-5542
بْرَةً	-5543
تَلُوا	-5544
جُّونَ	-5545
جِّنِي	-5546
حَاهَا	-5547
حْكُمَ	-5548
خَيْرِ	-5549
دَيْنٍ	-5550
رَابِي	-5551
رَاجًا	-5552
رُونِي	-5553
رَّاءِ	-5554
رْتَقِ	-5555
رْيَةٍ	-5556
زِرَةٌ	-5557
ضْتُمْ	-5558
طَايَا	-5559
طْعِمُ	-5560
طْمَعُ	-5561
ظِرُوا	-5562
عَتِهِ	-5563
فَيْنِ	-5564
فَّارٌ	-5565
قَوْمِ	-5566
كُفْرِ	-5567
كُورًا	-5568
كْبَرَ	-5569
كْمَةِ	-5570
لُغُوا	-5571
لِبُوا	-5572
لِيًّا	-5573
لَّامٍ	-5574
لْهُمْ	-5575
مَامًا	-5576
مْتُمْ	-5577
نُهُمْ	-5578
نِبُوا	-5579
هْلِهِ	-5580
وِيلًا	-5581
وِيًّا	-5582
وْنَهُ	-5583
▁أَحْي	-5584
▁أَخُو	-5585
▁أَرْض	-5586
▁أَمِن	-5587
▁أُنَا	-5588
▁اسْمُ	-5589
▁اضْطُ	-5590
▁الذِّ	-5591
▁الْتَ	-5592
▁الْهَ	-5593
▁بَصَا	-5594
▁بَهِي	-5595
▁بَيَا	-5596
▁بِسِي	-5597
▁بِنَا	-5598
▁تَحِي	-5599
▁تَرَى	-5600
▁تَمِي	-5601
▁ثَمَا	-5602
▁جَانِ	-5603
▁جَنَا	-5604
▁جِنَّ	-5605
▁خَافَ	-5606
▁خَطِي	-5607
▁خُطُو	-5608
▁رَأَى	-5609
▁رَاوَ	-5610
▁سَوْآ	-5611
▁شَرِّ	-5612
▁شَفِي	-5613
▁شَهَا	-5614
▁صَغِي	-5615
▁عَادٌ	-5616
▁عَاكِ	-5617
▁عَجُو	-5618
▁عَسَى	-5619
▁فَزَا	-5620
▁قَادِ	-5621
▁قَاصِ	-5622
▁قَرَا	-5623
▁قَمِي	-5624
▁كَاشِ	-5625
▁لَطِي	-5626
▁لِسَا	-5627
▁لَّبِ	-5628
▁مَآبٍ	-5629
▁مَّيْ	-5630
▁نَاصِ	-5631
▁نَبَّ	-5632
▁نِسَا	-5633
▁هَادٍ	-5634
▁هُدَا	-5635
▁هُدَى	-5636
▁وَبَا	-5637
▁وَخَا	-5638
▁وَضَا	-5639
▁وَفَا	-5640
▁وَلَّ	-5641
▁وَيُن	-5642
▁يَخُو	-5643
▁يَزَا	-5644
▁يُقَا	-5645
▁يُنفَ	-5646
آخِرَةُ	-5647
ئْتَنَا	-5648
بُوَّةَ	-5649
بِيَاءَ	-5650
تَرِينَ	-5651
تِهِمَا	-5652
تَّخِذُ	-5653
جَهَنَّ	-5654
دِمِينَ	-5655
ذَرِينَ	-5656
رَائِكِ	-5657
رَاهُمْ	-5658
رَبِّكَ	-5659
رَقْنَا	-5660
زَعُونَ	-5661
زُّبُرِ	-5662
سِرُونَ	-5663
سْعَهَا	-5664
شُرَكَا	-5665
طَاعُوا	-5666
طَرْنَا	-5667
ظَرِينَ	-5668
عَبِيدِ	-5669
عَذِّبُ	-5670
قَمْنَا	-5671
قِنِينَ	-5672
كَلِّفُ	-5673
كِتَابٍ	-5674
كِرُونَ	-5675
كِمِينَ	-5676
مْنَاهُ	-5677
وَاكُمْ	-5678
يَّنُوا	-5679
▁أَإِلَ	-5680
▁أَخَذْ	-5681
▁أَخْرِ	-5682
▁أَخْلَ	-5683
▁أَذِنَ	-5684
▁أَرْبَ	-5685
▁أَسْتَ	-5686
▁أَسْلِ	-5687
▁أَشْهُ	-5688
▁أَلْفَ	-5689
▁الزَّا	-5690
▁الْآنَ	-5691
▁بِأَلْ	-5692
▁بِكُفْ	-5693
▁بِهِمُ	-5694
▁تَبْتَ	-5695
▁تَتَفَ	-5696
▁تَحْتَ	-5697
▁تَزِرُ	-5698
▁تَشْتَ	-5699
▁تَشْهَ	-5700
▁جَانٌّ	-5701
▁جَبَّا	-5702
▁جَرَمَ	-5703
▁جَهْدَ	-5704
▁حَضَرَ	-5705
▁حَيًّا	-5706
▁خَسِرَ	-5707
▁خَطْبُ	-5708
▁خُذُوا	-5709
▁خِزْيٌ	-5710
▁ذَكَرٍ	-5711
▁ذَهَبٍ	-5712
▁ذَهَبَ	-5713
▁رَجُلٍ	-5714
▁رُسُلُ	-5715
▁رِزْقُ	-5716
▁سَفَرٍ	-5717
▁سَلَفَ	-5718
▁سَمَّا	-5719
▁سَنَةٍ	-5720
▁سِجِّي	-5721
▁طَغَىٰ	-5722
▁عَرَضَ	-5723
▁عَصَيْ	-5724
▁عَيْنَ	-5725
▁فَخَلَ	-5726
▁فَضْلِ	-5727
▁فَعَقَ	-5728
▁فَنَبَ	-5729
▁فَهِيَ	-5730
▁فِينَا	-5731
▁قَرْنٍ	-5732
▁كَبُرَ	-5733
▁كَفَىٰ	-5734
▁كُلًّا	-5735
▁لِحُكْ	-5736
▁لَّهَا	-5737
▁مُتْرَ	-5738
▁مُعْرِ	-5739
▁مَّسَّ	-5740
▁مُّنتَ	-5741
▁نَجَّا	-5742
▁نَرَىٰ	-5743
▁نَصْرُ	-5744
▁نَعْبُ	-5745
▁نُهُوا	-5746
▁نَّارٍ	-5747
▁وَتَفْ	-5748
▁وَجَدَ	-5749
▁وَجِئْ	-5750
▁وَجْهُ	-5751
▁وَلَأَ	-5752
▁وَلَنُ	-5753
▁وَلِيُ	-5754
▁وَمِثْ	-5755
▁وَنَزَ	-5756
▁وَنَصَ	-5757
▁وَيَدْ	-5758
▁وِزْرَ	-5759
▁يَجْتَ	-5760
▁يَحْشُ	-5761
▁يَدَكَ	-5762
▁يَرْتَ	-5763
▁يَظْهَ	-5764
▁يَعِظُ	-5765
▁يَلْبَ	-5766
▁يُفْتَ	-5767
حُوهُنَّ	-5768
خَّرْنَا	-5769
دَّعُونَ	-5770
رَدُّونَ	-5771
رْعَوْنَ	-5772
سْكُنُوا	-5773
شْهِدُوا	-5774
صَّيْنَا	-5775
ضْعِفُوا	-5776
عْرِضُوا	-5777
غُونَهَا	-5778
غْفِرَةٍ	-5779
فْسِدُوا	-5780
قْتُلُوا	-5781
وَاصَوْا	-5782
▁آتَيْتَ	-5783
▁أَئِنَّ	-5784
▁أَثِيمٍ	-5785
▁أَحْيَا	-5786
▁أَدْبَا	-5787
▁أَدْعُو	-5788
▁أَوْزَا	-5789
▁اسْتَأْ	-5790
▁اسْمُهُ	-5791
▁اكْتَسَ	-5792
▁الرَّجْ	-5793
▁الرِّجْ	-5794
▁السِّحْ	-5795
▁الْأَصْ	-5796
▁الْجَمْ	-5797
▁الْخِزْ	-5798
▁الْقَتْ	-5799
▁امْرِئٍ	-5800
▁بُهْتَا	-5801
▁بِالسَّ	-5802
▁بِالْعُ	-5803
▁بِوَالِ	-5804
▁تَبَرَّ	-5805
▁تَحْكُم	-5806
▁تَقْدِي	-5807
▁تَنفَعُ	-5808
▁تُوبُوا	-5809
▁حَبَّةٍ	-5810
▁حَدِيثٍ	-5811
▁حَدِيثُ	-5812
▁حَفِيظٌ	-5813
▁حَقَّتْ	-5814
▁حَمِيدٌ	-5815
▁حُسْنًا	-5816
▁خَاوِيَ	-5817
▁ذِكْرِي	-5818
▁رَشَدًا	-5819
▁رِضْوَا	-5820
▁سَوَاءً	-5821
▁سَوَاءِ	-5822
▁سِيرُوا	-5823
▁شِئْنَا	-5824
▁صِرَاطِ	-5825
▁عَالِمِ	-5826
▁عَالِيَ	-5827
▁عِندِكَ	-5828
▁فَأَصَا	-5829
▁فَتَابَ	-5830
▁فَتَرَى	-5831
▁فَتَعَا	-5832
▁قَالَتِ	-5833
▁قَوْمِي	-5834
▁كَالْأَ	-5835
▁كِتَابَ	-5836
▁لَصَادِ	-5837
▁لَكُمَا	-5838
▁لَيْلًا	-5839
▁لِآدَمَ	-5840
▁لِسُنَّ	-5841
▁لِعِبَا	-5842
▁لَّهُمُ	-5843
▁مَأْوَا	-5844
▁مَثْوًى	-5845
▁مَعَنَا	-5846
▁مُرِيبٍ	-5847
▁مِتْنَا	-5848
▁مَّثَلُ	-5849
▁مَّعَهُ	-5850
▁نَقُصُّ	-5851
▁نُزُلًا	-5852
▁نِّعْمَ	-5853
▁وَآمَنَ	-5854
▁وَأَنذِ	-5855
▁وَأَيَّ	-5856
▁وَابْنِ	-5857
▁وَاتْلُ	-5858
▁وَاسْأَ	-5859
▁وَاصْطَ	-5860
▁وَالْفَ	-5861
▁وَحِينَ	-5862
▁وَرَاءِ	-5863
▁وَرَائِ	-5864
▁وَرَبِّ	-5865
▁وَزِينَ	-5866
▁وَعَذَا	-5867
▁وَعَشِي	-5868
▁وَعَلَا	-5869
▁وَقُرْآ	-5870
▁وَكُلٌّ	-5871
▁وَكُلَّ	-5872
▁وَكُلُّ	-5873
▁وَكِيلٌ	-5874
▁وَمَسَا	-5875
▁يَتُوبُ	-5876
▁يَجْعَل	-5877
▁يَقُومُ	-5878
▁يَمُوتُ	-5879
▁يَنقَلِ	-5880
▁يَوَدُّ	-5881
▁يُحَرِّ	-5882
▁يُخْزِي	-5883
▁يُنفِقُ	-5884
بْطِلُونَ	-5885
جَهَنَّمَ	-5886
حْسَبُونَ	-5887
دَيْنَاهُ	-5888
رِيَنَّكَ	-5889
زْدَادُوا	-5890
زْعُمُونَ	-5891
صْبِحِينَ	-5892
ضْحَكُونَ	-5893
عَذِّبُهُ	-5894
عُدْوَانِ	-5895
كْفُرُونَ	-5896
نفُسِكُمْ	-5897
▁آتَاهُمُ	-5898
▁أَرْسَلَ	-5899
▁أَسْلَمَ	-5900
▁أَعْبُدَ	-5901
▁أَعْرَضَ	-5902
▁أَعْمَىٰ	-5903
▁أَلْسِنَ	-5904
▁أَمْلِكُ	-5905
▁أُمِرْتُ	-5906
▁إِنَاثًا	-5907
▁إِنَّنَا	-5908
▁اتَّقَىٰ	-5909
▁اسْتَجَا	-5910
▁الرِّيحَ	-5911
▁السُّوءَ	-5912
▁الشَّفَا	-5913
▁الضُّرُّ	-5914
▁الْبَابَ	-5915
▁الْحَيِّ	-5916
▁الْقَاعِ	-5917
▁الْقَيِّ	-5918
▁الْيَتِي	-5919
▁بِالسَّا	-5920
▁بِالسُّو	-5921
▁بِبَعْضِ	-5922
▁بِقَدَرٍ	-5923
▁بِمِثْلِ	-5924
▁بِيَدِهِ	-5925
▁بِيَوْمِ	-5926
▁تَحْزَنْ	-5927
▁تَنزِيلُ	-5928
▁جَاءُوكَ	-5929
▁جَعَلَهُ	-5930
▁جَنَّاتٌ	-5931
▁حَدِيثًا	-5932
▁حَوْلَهُ	-5933
▁خَرَجُوا	-5934
▁خَطَايَا	-5935
▁خَلَقْتَ	-5936
▁ذِكْرَىٰ	-5937
▁رَبُّكُم	-5938
▁رَبِّهِم	-5939
▁صَدَقُوا	-5940
▁صَيْحَةً	-5941
▁صِرَاطًا	-5942
▁غَفْلَةٍ	-5943
▁غُرُورًا	-5944
▁فَاحْكُم	-5945
▁فَنِعْمَ	-5946
▁قَوْمَهُ	-5947
▁قُتِلُوا	-5948
▁كَافَّةً	-5949
▁كَلِمَتُ	-5950
▁لَبِئْسَ	-5951
▁لَجَعَلَ	-5952
▁لَنَحْنُ	-5953
▁لَّوْلَا	-5954
▁لِّلسَّا	-5955
▁مَرْيَمُ	-5956
▁مَكَانًا	-5957
▁مُبَارَك	-5958
▁مِرْيَةٍ	-5959
▁مِنْهُمُ	-5960
▁مُّؤْمِن	-5961
▁مُّطَهَّ	-5962
▁مُّقِيمٌ	-5963
▁مِّمَّنْ	-5964
▁نَّذِيرٍ	-5965
▁هَدَانَا	-5966
▁وَأَجْرٌ	-5967
▁وَاجْعَل	-5968
▁وَاحِدًا	-5969
▁وَالنَّا	-5970
▁وَرَضُوا	-5971
▁وَرِزْقٌ	-5972
▁وَسَوْفَ	-5973
▁وَعَلَيْ	-5974
▁وَقَوْمُ	-5975
▁وَقُضِيَ	-5976
▁وَكَيْفَ	-5977
▁وَكُلُوا	-5978
▁وَلَقَدِ	-5979
▁وَلِلْمُ	-5980
▁وَنِعْمَ	-5981
▁وَيَلْعَ	-5982
▁يَأْتُوا	-5983
▁يَبْعَثَ	-5984
▁يَجِدُوا	-5985
▁يَحْيَىٰ	-5986
▁يَخْشَىٰ	-5987
▁يَسْمَعُ	-5988
▁يُخْلِفُ	-5989
▁يُدْخِلُ	-5990
زَكِّيهِمْ	-5991
هَاجِرِينَ	-5992
▁أَبْوَابَ	-5993
▁أَجْرَهُم	-5994
▁أَرَدْنَا	-5995
▁أَزْوَاجَ	-5996
▁أَشُدَّهُ	-5997
▁أَطِيعُوا	-5998
▁أَمْرِنَا	-5999
▁أَمْوَالَ	-6000
▁أَوْلَادَ	-6001
▁أَيُّهُمْ	-6002
▁أُنزِلَتْ	-6003
▁إِلَيْهِم	-6004
▁ائْتُونِي	-6005
▁الذِّكْرِ	-6006
▁الرُّسُلَ	-6007
▁الشَّمْسِ	-6008
▁الْخُلْدِ	-6009
▁الْفَجْرِ	-6010
▁الْقَوْمُ	-6011
▁الْكُفْرِ	-6012
▁الْمُلْكِ	-6013
▁الْمِيعَا	-6014
▁بَعْضُكُم	-6015
▁بِتَأْوِي	-6016
▁بِرَبِّكَ	-6017
▁بِوَكِيلٍ	-6018
▁تَعْثَوْا	-6019
▁تُطِيعُوا	-6020
▁جَاهَدُوا	-6021
▁حِجَارَةً	-6022
▁خُطُوَاتِ	-6023
▁دِينِكُمْ	-6024
▁رَبَّكُمُ	-6025
▁رَّسُولًا	-6026
▁فَآمِنُوا	-6027
▁فَأَحْيَا	-6028
▁فَاخْتَلَ	-6029
▁فَاسْتَجَ	-6030
▁فَرِيضَةً	-6031
▁فَعَلُوهُ	-6032
▁فَكَانَتْ	-6033
▁فَكَانُوا	-6034
▁كَأَنَّهُ	-6035
▁كَالَّذِي	-6036
▁كِتَابَهُ	-6037
▁لَرَءُوفٌ	-6038
▁لَّعَلِّي	-6039
▁مَكَّنَّا	-6040
▁مَلَائِكَ	-6041
▁مُتَشَابِ	-6042
▁مِنْهُمَا	-6043
▁مُّؤْمِنَ	-6044
▁مُّخْتَلِ	-6045
▁نَصَارَىٰ	-6046
▁نُفَصِّلُ	-6047
▁هَاجَرُوا	-6048
▁وَأَمْوَا	-6049
▁وَأَوْلَا	-6050
▁وَإِخْوَا	-6051
▁وَاحِدَةٌ	-6052
▁وَازِرَةٌ	-6053
▁وَالطَّيْ	-6054
▁وَصَدُّوا	-6055
▁وَعِلْمًا	-6056
▁وَعِيسَىٰ	-6057
▁وَمُوسَىٰ	-6058
▁وُسْعَهَا	-6059
▁يَبْغُونَ	-6060
▁يَتَّخِذَ	-6061
▁يَحْزُنكَ	-6062
▁يَسْتَأْذ	-6063
▁يَعْقُوبَ	-6064
▁يَمْشُونَ	-6065
▁يَهْدُونَ	-6066
▁يُؤْتِيهِ	-6067
▁يُجَادِلُ	-6068
▁يُخَفَّفُ	-6069
▁يُنَزِّلُ	-6070
▁آتَيْنَاهُ	-6071
▁آلِهَتِنَا	-6072
▁أَحْسَنُوا	-6073
▁أَنشَأْنَا	-6074
▁اتَّبَعُوا	-6075
▁السُّفَهَا	-6076
▁الطَّعَامَ	-6077
▁اللَّهُمَّ	-6078
▁النَّبِيَّ	-6079
▁الْآخِرَةُ	-6080
▁الْأَبْرَا	-6081
▁الْأُمُورِ	-6082
▁الْبَاطِلُ	-6083
▁الْبِلَادِ	-6084
▁الْحَرِيقِ	-6085
▁الْخَبِيثَ	-6086
▁الْعَلِيُّ	-6087
▁الْفَاحِشَ	-6088
▁الْقُلُوبُ	-6089
▁الْقِتَالُ	-6090
▁الْمَيِّتِ	-6091
▁الْمِهَادُ	-6092
▁بَارَكْنَا	-6093
▁بِظَلَّامٍ	-6094
▁تَبْدِيلًا	-6095
▁تَجْعَلُوا	-6096
▁تَخَافُونَ	-6097
▁تَصْبِرُوا	-6098
▁تَعْلَمُوا	-6099
▁تَقْرَبُوا	-6100
▁تُرِيدُونَ	-6101
▁تُصِبْهُمْ	-6102
▁جَاثِمِينَ	-6103
▁جَعَلَكُمْ	-6104
▁خَاسِرِينَ	-6105
▁خَلْفِهِمْ	-6106
▁رَزَقَكُمُ	-6107
▁رِسَالَاتِ	-6108
▁زَكَرِيَّا	-6109
▁سَاجِدِينَ	-6110
▁سَمَاوَاتٍ	-6111
▁سَيِّئَاتُ	-6112
▁فَأَعْرِضْ	-6113
▁فَانظُرُوا	-6114
▁فَسَجَدُوا	-6115
▁كَارِهُونَ	-6116
▁لَعِبْرَةً	-6117
▁مَفْعُولًا	-6118
▁مَّعْلُومٍ	-6119
▁مُّصِيبَةٌ	-6120
▁مِّنْهُمَا	-6121
▁نَجَّيْنَا	-6122
▁وَأَوْفُوا	-6123
▁وَالنَّاسِ	-6124
▁وَالنَّبِي	-6125
▁وَبُشْرَىٰ	-6126
▁وَعِظَامًا	-6127
▁وَقَوْمِهِ	-6128
▁وَمَوْعِظَ	-6129
▁يَأْتِكُمْ	-6130
▁يَأْتِيكُم	-6131
▁يَأْتِيهِم	-6132
▁يَتَوَفَّا	-6133
▁يَشَاءُونَ	-6134
▁يَصُدُّونَ	-6135
▁يَظُنُّونَ	-6136
▁يَعْلَمُوا	-6137
▁أَجِئْتَنَا	-6138
▁أَغْرَقْنَا	-6139
▁أَيْدِيكُمْ	-6140
▁الْآخَرِينَ	-6141
▁الْأُخْرَىٰ	-6142
▁الْكُبْرَىٰ	-6143
▁الْكُفَّارَ	-6144
▁الْكُفَّارِ	-6145
▁بُيُوتِكُمْ	-6146
▁بِالْإِثْمِ	-6147
▁بِالْقَوْلِ	-6148
▁بِرَبِّكُمْ	-6149
▁تُؤْمِنُونَ	-6150
▁تُسْأَلُونَ	-6151
▁صَلَاتِهِمْ	-6152
▁ظُهُورِهِمْ	-6153
▁قُلُوبِهِمُ	-6154
▁مَوْلَاكُمْ	-6155
▁مُدْبِرِينَ	-6156
▁مُعْرِضُونَ	-6157
▁مُعْرِضِينَ	-6158
▁مُفْسِدِينَ	-6159
▁مَّعْرُوفًا	-6160
▁وَاشْكُرُوا	-6161
▁وَالشَّمْسَ	-6162
▁وَالْمَغْرِ	-6163
▁وَرَبُّكُمْ	-6164
▁وَلَعَذَابُ	-6165
▁وَمَلَائِكَ	-6166
▁وَيُؤْتُونَ	-6167
▁وَيُنَزِّلُ	-6168
▁وُجُوهُهُمْ	-6169
▁يَحْلِفُونَ	-6170
▁يَذْكُرُونَ	-6171
▁يَشْتَهُونَ	-6172
▁يَصْنَعُونَ	-6173
▁يَعْدِلُونَ	-6174
▁يَفْسُقُونَ	-6175
▁يَكْتُبُونَ	-6176
▁يَكْتُمُونَ	-6177
▁يَلْعَبُونَ	-6178
▁يُحْيِيكُمْ	-6179
▁أَهْوَاءَهُم	-6180
▁إِحْدَاهُمَا	-6181
▁التَّوْرَاةَ	-6182
▁الصَّدَقَاتِ	-6183
▁الْأَبْصَارُ	-6184
▁الْأَدْبَارَ	-6185
▁الْأَرَائِكِ	-6186
▁الْأَرْحَامِ	-6187
▁الْيَتَامَىٰ	-6188
▁بِالْعِبَادِ	-6189
▁بِسِيمَاهُمْ	-6190
▁تَأْتِيَهُمُ	-6191
▁فَاعْبُدُوهُ	-6192
▁لِّلْعَبِيدِ	-6193
▁مُّسْتَقِيمٌ	-6194
▁مُّهْتَدُونَ	-6195
▁وَأَصْلَحُوا	-6196
▁وَاتَّخَذُوا	-6197
▁وَالسَّمَاءِ	-6198
▁يَحْشُرُهُمْ	-6199
▁يُسَبِّحُونَ	-6200
▁أَبْصَارُهُمْ	-6201
▁أَمْوَالُهُمْ	-6202
▁أَمْوَالِهِمْ	-6203
▁اسْتُضْعِفُوا	-6204
▁الرَّازِقِينَ	-6205
▁السَّاجِدِينَ	-6206
▁الشَّيَاطِينَ	-6207
▁الْحَاكِمِينَ	-6208
▁الْغَالِبُونَ	-6209
▁الْمُنذَرِينَ	-6210
▁بِأَنفُسِهِمْ	-6211
▁بِالْإِيمَانِ	-6212
▁بِالْحَسَنَةِ	-6213
▁رَزَقْنَاكُمْ	-6214
▁طُغْيَانِهِمْ	-6215
▁وَأَرْسَلْنَا	-6216
▁وَأَمْطَرْنَا	-6217
▁وَالْإِنجِيلَ	-6218
▁يَسْتَجِيبُوا	-6219
▁أُمَّهَاتِكُمْ	-6220
▁الْمُؤْمِنَاتِ	-6221
▁بِالسَّيِّئَةِ	-6222
▁سَيِّئَاتِكُمْ	-6223
▁لَمَبْعُوثُونَ	-6224
▁وَالنَّصَارَىٰ	-6225
▁وَالْأَبْصَارَ	-6226
▁وَالْعُدْوَانِ	-6227
▁يَتَوَكَّلُونَ	-6228
▁يُقَاتِلُوكُمْ	-6229
▁بِأَفْوَاهِهِمْ	-6230
▁بِالظَّالِمِينَ	-6231
▁فَاسْتَكْبَرُوا	-6232
▁وَجَعَلْنَاهُمْ	-6233
▁يَسْتَأْخِرُونَ	-6234
▁يَسْتَبْشِرُونَ	-6235
ءً	-6236
أً	-6237
زٍ	-6238
شٍ	-6239
غٍ	-6240
▁د	-6241
▁غ	-6242
ثُو	-6243
خًا	-6244
رًى	-6245
قٌّ	-6246
مُّ	-6247
هِّ	-6248
ْهُ	-6249
▁آل	-6250
أَىٰ	-6251
أْبِ	-6252
ئِيَ	-6253
بَحَ	-6254
بَذَ	-6255
بَهَ	-6256
بِتُ	-6257
بِرَ	-6258
ثْتَ	-6259
ثْقَ	-6260
جِعُ	-6261
جْمِ	-6262
جْنَ	-6263
حَمُ	-6264
حْمِ	-6265
خَلْ	-6266
خْتُ	-6267
خْلٍ	-6268
دُسُ	-6269
دُسِ	-6270
دْنَ	-6271
ذُرُ	-6272
ذِرٌ	-6273
ذِرُ	-6274
رُجُ	-6275
رِضْ	-6276
رْبِ	-6277
رْدَ	-6278
رْفِ	-6279
رْهَ	-6280
زَهُ	-6281
زِعُ	-6282
زْمِ	-6283
سَكَ	-6284
سِبُ	-6285
سِفَ	-6286
سْكَ	-6287
سْلُ	-6288
شَرٍ	-6289
شْفَ	-6290
صَةٌ	-6291
ضَبٍ	-6292
ضِعَ	-6293
ظَرَ	-6294
عَلُ	-6295
عَلْ	-6296
عِذْ	-6297
عْتُ	-6298
عْفِ	-6299
غِيَ	-6300
غْوِ	-6301
فَعْ	-6302
فَلَ	-6303
فُسَ	-6304
فِتْ	-6305
فِيَ	-6306
قْهُ	-6307
كُلْ	-6308
كَّا	-6309
لَةُ	-6310
لَدِ	-6311
لَمِ	-6312
لْبِ	-6313
لْمِ	-6314
مَرِ	-6315
مَسْ	-6316
مُرْ	-6317
مْرُ	-6318
نُسَ	-6319
نِعَ	-6320
نْحِ	-6321
هَيْ	-6322
هْجُ	-6323
هْفِ	-6324
هْوٌ	-6325
وَةٍ	-6326
وَةِ	-6327
وِرَ	-6328
وِلْ	-6329
وْمٍ	-6330
يَةٌ	-6331
َاهُ	-6332
ُمِّ	-6333
ِنُو	-6334
ِّنُ	-6335
▁خِي	-6336
▁دُع	-6337
▁ذَن	-6338
▁رُو	-6339
▁صُم	-6340
▁عَط	-6341
▁كَن	-6342
▁لُّ	-6343
▁نُن	-6344
▁وَب	-6345
▁وَن	-6346
ئِكُم	-6347
بَاهُ	-6348
بَنِي	-6349
بَهُم	-6350
بِرًا	-6351
بِهَا	-6352
بِيحَ	-6353
بَّحَ	-6354
بِّئْ	-6355
بْتُم	-6356
بْرِي	-6357
تُمَا	-6358
جَبًا	-6359
جُنُو	-6360
جِيلِ	-6361
جِينَ	-6362
حَامُ	-6363
حُونِ	-6364
حِيصٍ	-6365
حِيطَ	-6366
حْرُو	-6367
حْيَا	-6368
خَاطِ	-6369
خَالِ	-6370
خِيلٍ	-6371
دُهَا	-6372
دِينِ	-6373
دَّةَ	-6374
ذَانِ	-6375
ذَّنَ	-6376
رَاءُ	-6377
رَاغَ	-6378
رَهَا	-6379
رَوُا	-6380
رُوجَ	-6381
رُورُ	-6382
رِيكَ	-6383
رُّهُ	-6384
رِّفُ	-6385
زِيزٍ	-6386
سَدًا	-6387
سَفًا	-6388
سْقِي	-6389
شِهَا	-6390
صَالٍ	-6391
صَلِّ	-6392
ضَاءُ	-6393
ضُرٍّ	-6394
ضَّةٍ	-6395
طِيعَ	-6396
طَّعَ	-6397
ظَاهَ	-6398
عَاجِ	-6399
عَانِ	-6400
عَذَّ	-6401
عَمِّ	-6402
عَنَّ	-6403
عُهَا	-6404
عِدَّ	-6405
عِيدِ	-6406
عِينٍ	-6407
غَانِ	-6408
غِينَ	-6409
غْلَا	-6410
فَاءٌ	-6411
فُورٍ	-6412
فَّىٰ	-6413
قَانَ	-6414
قَاهُ	-6415
قَدَّ	-6416
قَرٌّ	-6417
قَطِّ	-6418
قَّةُ	-6419
قْدَا	-6420
كِيرِ	-6421
كْرًا	-6422
لَاثَ	-6423
لَانِ	-6424
لُوتَ	-6425
لُوكَ	-6426
لَّفَ	-6427
مَاءَ	-6428
مَاتِ	-6429
مَامِ	-6430
مَعًا	-6431
مِينُ	-6432
مَّيْ	-6433
نكَرِ	-6434
نَوْا	-6435
هَارٌ	-6436
هَوْا	-6437
وَاحِ	-6438
وَاعِ	-6439
وَاكِ	-6440
وَكِّ	-6441
يَاءَ	-6442
يْلَا	-6443
ِنزِي	-6444
ُّمَّ	-6445
ُّورُ	-6446
▁آلَا	-6447
▁أَخَ	-6448
▁أَشِ	-6449
▁أَصَ	-6450
▁أَلَ	-6451
▁أَنَ	-6452
▁أَنُ	-6453
▁أُحْ	-6454
▁أُعِ	-6455
▁الْح	-6456
▁انتِ	-6457
▁بَرَ	-6458
▁بِرِ	-6459
▁بِشَ	-6460
▁تَأَ	-6461
▁تَصْ	-6462
▁تَعُ	-6463
▁ثَقُ	-6464
▁جَمْ	-6465
▁دُبُ	-6466
▁دُمْ	-6467
▁رَأْ	-6468
▁رَغَ	-6469
▁زَعَ	-6470
▁زَيْ	-6471
▁زُلْ	-6472
▁سُبُ	-6473
▁شَأْ	-6474
▁شَرَ	-6475
▁صَنَ	-6476
▁ضَعْ	-6477
▁طَلْ	-6478
▁طَيْ	-6479
▁ظَهْ	-6480
▁عَزَ	-6481
▁عُذْ	-6482
▁غَلَ	-6483
▁فَخُ	-6484
▁فَزَ	-6485
▁فَضَ	-6486
▁فَقُ	-6487
▁فَكُ	-6488
▁قِبَ	-6489
▁لَإِ	-6490
▁لَغْ	-6491
▁لَلْ	-6492
▁مَذْ	-6493
▁مُرْ	-6494
▁نَعْ	-6495
▁نُصَ	-6496
▁هَبْ	-6497
▁وَان	-6498
▁وَثُ	-6499
▁وَحِ	-6500
▁وَشِ	-6501
▁وَظِ	-6502
▁يَدُ	-6503
▁يَرُ	-6504
▁يَزِ	-6505
▁يَلِ	-6506
▁يُشْ	-6507
▁يُهْ	-6508
أْوَىٰ	-6509
ئُولًا	-6510
ئِدَةً	-6511
بَابًا	-6512
بَعَثَ	-6513
بَيْنِ	-6514
بُوهَا	-6515
بِيلًا	-6516
بِيَهْ	-6517
بْعَثُ	-6518
تِكُمُ	-6519
تِهِمُ	-6520
تِينَا	-6521
تِيَةٌ	-6522
تْكُمُ	-6523
حُكْمَ	-6524
حِشَةً	-6525
حِشَةٍ	-6526
حِيمًا	-6527
حْسَبُ	-6528
حْسَنُ	-6529
حْسَنِ	-6530
حْسِنٌ	-6531
حْيِيَ	-6532
خْلِفَ	-6533
دُوهَا	-6534
دِهِمْ	-6535
ذِكْرِ	-6536
ذَّابٌ	-6537
رَابًا	-6538
رَامًا	-6539
رَاهَا	-6540
رَحُوا	-6541
رَفُوا	-6542
رْكُمْ	-6543
سَاهَا	-6544
سِهِمْ	-6545
سْلِمَ	-6546
سْوَةٌ	-6547
شُورًا	-6548
صُورًا	-6549
ضَعْنَ	-6550
ضِيًّا	-6551
ضْرِبْ	-6552
عَامًا	-6553
عَهُمْ	-6554
عُونَا	-6555
عِقَةُ	-6556
عِيدًا	-6557
عِيفًا	-6558
عْمَلُ	-6559
عْنَةُ	-6560
غْنَىٰ	-6561
فُّونَ	-6562
قِفُوا	-6563
قِيرًا	-6564
قْبَلُ	-6565
قْتَرِ	-6566
قْتُمُ	-6567
قْتُمْ	-6568
كِنَّا	-6569
كِنِّي	-6570
كِهَةٌ	-6571
لَيْكَ	-6572
لُومًا	-6573
لِمُوا	-6574
لِهِمُ	-6575
لَّامُ	-6576
مَعُوا	-6577
نِيئًا	-6578
نِيَةَ	-6579
هِكُمْ	-6580
يْتُمُ	-6581
يْتُهُ	-6582
ُمَتِّ	-6583
ُمْلِي	-6584
ُنذِرَ	-6585
ُوسُفَ	-6586
ُوكُمْ	-6587
ُوهُمْ	-6588
▁أَبُو	-6589
▁أَثَا	-6590
▁أَخِي	-6591
▁أَفِي	-6592
▁أَقُل	-6593
▁أَكُن	-6594
▁أَنبَ	-6595
▁ارْكَ	-6596
▁اقْرَ	-6597
▁بَاسِ	-6598
▁بِخَا	-6599
▁بِرُس	-6600
▁بِرُو	-6601
▁تَعُو	-6602
▁تَمُو	-6603
▁تَنظُ	-6604
▁تُحْص	-6605
▁جُندٌ	-6606
▁حَاضِ	-6607
▁حُرُم	-6608
▁حُرِّ	-6609
▁حُمِّ	-6610
▁حِلٌّ	-6611
▁خَفَّ	-6612
▁دَارُ	-6613
▁ذَوَا	-6614
▁سُنبُ	-6615
▁شَعَا	-6616
▁ظَنُّ	-6617
▁ظُلُم	-6618
▁ظِلَا	-6619
▁عَنِي	-6620
▁غَالِ	-6621
▁غَدًا	-6622
▁فَارِ	-6623
▁فَخُو	-6624
▁فَقُل	-6625
▁فَقُو	-6626
▁كَبَا	-6627
▁كَفَّ	-6628
▁كُذِّ	-6629
▁لَحَا	-6630
▁لَسَا	-6631
▁لَقِي	-6632
▁لَّيُ	-6633
▁لِّنُ	-6634
▁مِنكَ	-6635
▁مَّطَ	-6636
▁مَّكْ	-6637
▁مُّلْ	-6638
▁نَارٌ	-6639
▁نَارُ	-6640
▁نَارِ	-6641
▁نَكُن	-6642
▁نُوحُ	-6643
▁نَّدْ	-6644
▁وَتَن	-6645
▁وَجِي	-6646
▁وَدَّ	-6647
▁وَذَا	-6648
▁وَرَا	-6649
▁وَقُو	-6650
▁وَمُن	-6651
▁يَتِي	-6652
▁يَسُو	-6653
▁يَعُو	-6654
▁يَنقُ	-6655
▁يَنكِ	-6656
▁يُمِي	-6657
ئِزُونَ	-6658
ئِلِينَ	-6659
بِقُونَ	-6660
تَاهُمُ	-6661
جْنُونٌ	-6662
حْرِيرُ	-6663
خِرِينَ	-6664
دَبِّرُ	-6665
دِيكُمْ	-6666
ذُوهُمْ	-6667
رَّقُوا	-6668
رِّيَّا	-6669
سْلَامِ	-6670
شَابَهَ	-6671
صَدِّقٌ	-6672
صَيْنَا	-6673
صِيَامُ	-6674
صَّبْرِ	-6675
ضَيْنَا	-6676
ضِلُّوا	-6677
طْمَئِن	-6678
ظُنُّكَ	-6679
ظِرُونَ	-6680
عِدُنَا	-6681
فَيْنَا	-6682
فِقِينَ	-6683
قَالُوا	-6684
قِمُونَ	-6685
قْنَاهُ	-6686
كَفِّرْ	-6687
لِمَاتِ	-6688
لِيهِمْ	-6689
لِيَّةِ	-6690
لِّمُوا	-6691
مَرُونَ	-6692
نَزَّلَ	-6693
نِهِنَّ	-6694
وَاحِشَ	-6695
وَلَّوا	-6696
ُلُوًّا	-6697
▁آتِنَا	-6698
▁أَتَىٰ	-6699
▁أَجَلٌ	-6700
▁أَحَدُ	-6701
▁أَرَىٰ	-6702
▁أَرْجُ	-6703
▁أَرْضَ	-6704
▁أَشْرَ	-6705
▁أَفَتَ	-6706
▁أَقْسَ	-6707
▁إِثْمَ	-6708
▁إِفْكٌ	-6709
▁التَّا	-6710
▁بِسِحْ	-6711
▁بِيَدِ	-6712
▁تَبْخَ	-6713
▁تَحْمِ	-6714
▁تَدْعُ	-6715
▁تَذَرُ	-6716
▁تَذْهَ	-6717
▁تَسْمَ	-6718
▁تَعْجَ	-6719
▁تَفْتَ	-6720
▁تَكُنْ	-6721
▁تَهْتَ	-6722
▁تُطِعِ	-6723
▁حَبًّا	-6724
▁حَرْثَ	-6725
▁خَلْقُ	-6726
▁خَيْرَ	-6727
▁خُلِقَ	-6728
▁دَعَوْ	-6729
▁دَيْنٍ	-6730
▁دِينًا	-6731
▁ذَرَأَ	-6732
▁رَضُوا	-6733
▁رِجْسٌ	-6734
▁رِيحًا	-6735
▁زَعَمْ	-6736
▁سَبَقَ	-6737
▁سَتَجِ	-6738
▁سُرُرٍ	-6739
▁شَهِدَ	-6740
▁صَدَقَ	-6741
▁ظَهَرَ	-6742
▁عَدْلٍ	-6743
▁عَشَرَ	-6744
▁عَنكُم	-6745
▁غَضَبٌ	-6746
▁فَأَمْ	-6747
▁فَأْتِ	-6748
▁فَتَبَ	-6749
▁فَخُذْ	-6750
▁فَرَضَ	-6751
▁فَسَتَ	-6752
▁فَلَبِ	-6753
▁فَلَنَ	-6754
▁فَلِمَ	-6755
▁فَلْيُ	-6756
▁قَتَلَ	-6757
▁قَضَيْ	-6758
▁قُلْتَ	-6759
▁كَانَت	-6760
▁لَيَحْ	-6761
▁لُوطًا	-6762
▁لِلشَّ	-6763
▁لِلْأَ	-6764
▁مَثَلٍ	-6765
▁مَّهِي	-6766
▁مُّلَا	-6767
▁نَبَأُ	-6768
▁نَحْشُ	-6769
▁نَزَلَ	-6770
▁نَسْتَ	-6771
▁نَعَمْ	-6772
▁نُوحِي	-6773
▁هَلَكَ	-6774
▁وَأَسْ	-6775
▁وَأَطْ	-6776
▁وَإِثْ	-6777
▁وَالْج	-6778
▁وَبِال	-6779
▁وَتَصْ	-6780
▁وَسِعَ	-6781
▁وَصَّا	-6782
▁وَفَضْ	-6783
▁وَقُلِ	-6784
▁وَلَعِ	-6785
▁وَلِأَ	-6786
▁وَلِتُ	-6787
▁وَيُحِ	-6788
▁وَيْلَ	-6789
▁يَأْكُ	-6790
▁يَتَمَ	-6791
▁يَحْمِ	-6792
▁يَرَىٰ	-6793
▁يَشْرَ	-6794
▁يَصْلَ	-6795
▁يَفْتَ	-6796
▁يَقْدِ	-6797
▁يَكُنِ	-6798
▁يَلْتَ	-6799
▁يُخْلَ	-6800
▁يُسْتَ	-6801
▁يُوحِي	-6802
إِيمَانَ	-6803
بْلُغُوا	-6804
تُوهُنَّ	-6805
تْلُوهَا	-6806
جُلَيْنِ	-6807
خُلُوهَا	-6808
دُّوكُمْ	-6809
رُوهُنَّ	-6810
رَّسُولِ	-6811
زَّلْنَا	-6812
سْتَبْرَ	-6813
غْفِرَةً	-6814
غْفِرَةِ	-6815
فَّيْنَا	-6816
فْئِدَةَ	-6817
كُوهُنَّ	-6818
كْفُرُوا	-6819
مْعِهِمْ	-6820
نِّسَاءِ	-6821
وْمَئِذٍ	-6822
يِّتُونَ	-6823
ُّوهُنَّ	-6824
▁آتِيكُم	-6825
▁آلِهَةٌ	-6826
▁آمَنَتْ	-6827
▁أَثْقَا	-6828
▁أَحَاطَ	-6829
▁أَخَاهُ	-6830
▁أَدُلُّ	-6831
▁أَدْرِي	-6832
▁أَسْمَا	-6833
▁أَصْنَا	-6834
▁أَضْغَا	-6835
▁أَكِنَّ	-6836
▁أَمَّنْ	-6837
▁أَنفُسُ	-6838
▁أُهِلَّ	-6839
▁إِحْدَى	-6840
▁اذْهَبْ	-6841
▁اسْتَحَ	-6842
▁الْأَوْ	-6843
▁الْبَصَ	-6844
▁الْخَوْ	-6845
▁الْعُمُ	-6846
▁الْعُمْ	-6847
▁الْفَتْ	-6848
▁الْفُرْ	-6849
▁الْقَصَ	-6850
▁الْمَعْ	-6851
▁الْمُسَ	-6852
▁الْمُمْ	-6853
▁الْمِحْ	-6854
▁الْمِسْ	-6855
▁بَعْدِي	-6856
▁بَلَاءٌ	-6857
▁بُعْدًا	-6858
▁بِاسْمِ	-6859
▁بِالْبُ	-6860
▁بِالْحُ	-6861
▁بِالْيَ	-6862
▁بِجَانِ	-6863
▁بِسُوءٍ	-6864
▁بِضُرٍّ	-6865
▁بِمَاءٍ	-6866
▁تَتْلُو	-6867
▁تَدْرِي	-6868
▁تَقَلُّ	-6869
▁تَقُولُ	-6870
▁تَوَفَّ	-6871
▁تُجَادِ	-6872
▁ثَوَابَ	-6873
▁جَسَدًا	-6874
▁جَوَابَ	-6875
▁حَكِيمٍ	-6876
▁حَمِيمٌ	-6877
▁خَالِقُ	-6878
▁خَوْفًا	-6879
▁خِلَافٍ	-6880
▁ذِلَّةٌ	-6881
▁رَأَوُا	-6882
▁رَسُولِ	-6883
▁رُءُوسَ	-6884
▁سَاحِرٌ	-6885
▁سَبَبًا	-6886
▁سَكِينَ	-6887
▁سَمَّيْ	-6888
▁سَوَاءَ	-6889
▁سُبُلًا	-6890
▁سُنَّةَ	-6891
▁شَرَابٌ	-6892
▁شَكُورٌ	-6893
▁شَكُورٍ	-6894
▁شَهَادَ	-6895
▁شِقَاقٍ	-6896
▁شِيَعًا	-6897
▁طَعَامِ	-6898
▁طَوْعًا	-6899
▁عَجَبًا	-6900
▁عَهْدًا	-6901
▁عَيْنَا	-6902
▁عُقْبَى	-6903
▁عِندَكَ	-6904
▁عِندِهِ	-6905
▁عِيسَىٰ	-6906
▁غُلَامٌ	-6907
▁فَاحْذَ	-6908
▁فَارْجِ	-6909
▁فَالْتَ	-6910
▁فَالْمُ	-6911
▁فَتْحًا	-6912
▁فَحَقَّ	-6913
▁فَسَاءَ	-6914
▁فَضَّلَ	-6915
▁فَمَالِ	-6916
▁فِضَّةٍ	-6917
▁قَاتَلَ	-6918
▁قَامُوا	-6919
▁قَرَارٍ	-6920
▁قَوِيٌّ	-6921
▁كَادُوا	-6922
▁كَذَٰلِ	-6923
▁كُفْرًا	-6924
▁كُلِّهِ	-6925
▁كِسَفًا	-6926
▁لَحْمًا	-6927
▁لَدَيَّ	-6928
▁لَشَدِي	-6929
▁لَطِيفٌ	-6930
▁لَقَادِ	-6931
▁لَوَاقِ	-6932
▁لِّمَنْ	-6933
▁مَثْوَى	-6934
▁مَرَدَّ	-6935
▁مَسَّهُ	-6936
▁مَكَانٍ	-6937
▁مَكْرًا	-6938
▁مَلَكُو	-6939
▁مُحَرَّ	-6940
▁مُحِيطٌ	-6941
▁مُعَذِّ	-6942
▁مِسْكِي	-6943
▁مَّاذَا	-6944
▁مَّعَكَ	-6945
▁نَبَّأَ	-6946
▁نَرَاكَ	-6947
▁نَعِيمٍ	-6948
▁نَكِيرِ	-6949
▁نُودِيَ	-6950
▁هَاتُوا	-6951
▁وَأُمَّ	-6952
▁وَإِذًا	-6953
▁وَابْنَ	-6954
▁وَاجْتَ	-6955
▁وَاخْشَ	-6956
▁وَارْحَ	-6957
▁وَارْزُ	-6958
▁وَاعْتَ	-6959
▁وَالرَّ	-6960
▁وَالرُّ	-6961
▁وَالْفِ	-6962
▁وَبَاطِ	-6963
▁وَبَالَ	-6964
▁وَبَدَا	-6965
▁وَرَبَّ	-6966
▁وَعَادٌ	-6967
▁وَعِندَ	-6968
▁وَقَدَّ	-6969
▁وَقْرًا	-6970
▁وَلِيٌّ	-6971
▁يَتُوبَ	-6972
▁يَتَّقِ	-6973
▁يَجْرِي	-6974
▁يَحِلُّ	-6975
▁يَرْجُو	-6976
▁يَسْتَن	-6977
▁يَقُولَ	-6978
▁يَقْضِي	-6979
▁يَنظُرُ	-6980
▁يَنفَعَ	-6981
▁يُؤَخِّ	-6982
▁يُؤْتِي	-6983
▁يُبَايِ	-6984
▁يُبَدِّ	-6985
▁يُبَشِّ	-6986
▁يُصِيبَ	-6987
▁يُضَاعَ	-6988
▁يُضِيعُ	-6989
▁يُفَرِّ	-6990
▁يُنفَخُ	-6991
▁يُهَاجِ	-6992
▁يُولِجُ	-6993
ؤْمِنَاتُ	-6994
حَاجُّونَ	-6995
حْصَنَاتِ	-6996
خْتِلَافِ	-6997
خْرِجَكُم	-6998
دْنَاهُمْ	-6999
رَبَّصُوا	-7000
رَنَّهُمْ	-7001
سْأَلُنَّ	-7002
ضْعَفِينَ	-7003
عْلَمَنَّ	-7004
عْنَاهُمْ	-7005
عْيُنِنَا	-7006
قْدِمُونَ	-7007
مَنَّكُمْ	-7008
مْلَأَنَّ	-7009
نْحِتُونَ	-7010
هْلَكْنَا	-7011
▁آتَاكُمْ	-7012
▁آيَاتُهُ	-7013
▁أَبَوَيْ	-7014
▁أَدْبَرَ	-7015
▁أَرْحَمُ	-7016
▁أَزْكَىٰ	-7017
▁أَشْهُرٍ	-7018
▁أَغَيْرَ	-7019
▁أَفْلَحَ	-7020
▁أَلْقُوا	-7021
▁أَنَّهَا	-7022
▁أَهْلَكَ	-7023
▁أَهْلَهُ	-7024
▁أَوَّابٌ	-7025
▁أَوْفُوا	-7026
▁أُرْسِلَ	-7027
▁إِمَامًا	-7028
▁ائْتِنَا	-7029
▁اضْطُرَّ	-7030
▁الرِّجَا	-7031
▁الشَّرُّ	-7032
▁الصُّمَّ	-7033
▁الطُّورِ	-7034
▁الْإِنسِ	-7035
▁الْبُيُو	-7036
▁الْبِرَّ	-7037
▁الْحَجِّ	-7038
▁الْحَيَّ	-7039
▁الْعَامِ	-7040
▁الْعَدَا	-7041
▁الْمَاءُ	-7042
▁بَشِيرًا	-7043
▁بُشْرَىٰ	-7044
▁بِرَبِّي	-7045
▁بِظُلْمٍ	-7046
▁بِغَضَبٍ	-7047
▁تَأْكُلُ	-7048
▁تَجْعَلْ	-7049
▁تَحْمِلُ	-7050
▁تَخْرُجُ	-7051
▁تَعْلَمْ	-7052
▁تَنزِيلٌ	-7053
▁تُبْدُوا	-7054
▁تُغْنِيَ	-7055
▁ثَقُلَتْ	-7056
▁ثَوَابًا	-7057
▁ثُبُورًا	-7058
▁جَمِيلًا	-7059
▁حَاصِبًا	-7060
▁حَسِيبًا	-7061
▁حَلَالًا	-7062
▁حَمَلَتْ	-7063
▁حِسَابًا	-7064
▁خَلَقَهُ	-7065
▁خَلَقُوا	-7066
▁خَلَقْتُ	-7067
▁خَلْفِهِ	-7068
▁رَحْمَةٍ	-7069
▁سَحَابًا	-7070
▁سَمِيعًا	-7071
▁سَوِيًّا	-7072
▁شِئْتُمْ	-7073
▁صَبَّارٍ	-7074
▁صَعِيدًا	-7075
▁صَنَعُوا	-7076
▁ضَعِيفًا	-7077
▁ظَهِيرًا	-7078
▁عَبْدِهِ	-7079
▁عَلِمْتَ	-7080
▁عَلَّامُ	-7081
▁عَمَلِهِ	-7082
▁عِظَامًا	-7083
▁فَانطَلَ	-7084
▁فَسَوَّا	-7085
▁فَعَسَىٰ	-7086
▁فَعَلُوا	-7087
▁فَنَبَذْ	-7088
▁قَائِمًا	-7089
▁قَبْلَكَ	-7090
▁قَوْمَكَ	-7091
▁قَوْمُهُ	-7092
▁قُرْبَىٰ	-7093
▁قِيَامًا	-7094
▁كَذَبُوا	-7095
▁كَذَّابٌ	-7096
▁كَرِيمًا	-7097
▁كَفُورًا	-7098
▁كَلِمَةُ	-7099
▁كُفَّارٌ	-7100
▁كُلَّهَا	-7101
▁لَبِثُوا	-7102
▁لِأَجَلٍ	-7103
▁لِبَشَرٍ	-7104
▁لِغَيْرِ	-7105
▁لِيَوْمٍ	-7106
▁لِيَوْمِ	-7107
▁لَّهُمَا	-7108
▁لِّبَنِي	-7109
▁مَتَاعًا	-7110
▁مُحْسِنٌ	-7111
▁مُخْتَلِ	-7112
▁مَّحِيصٍ	-7113
▁مَّوَدَّ	-7114
▁نَبِيًّا	-7115
▁نُفُورًا	-7116
▁نَّبِيٍّ	-7117
▁نَّخِيلٍ	-7118
▁هَاهُنَا	-7119
▁هَنِيئًا	-7120
▁وَآتَوُا	-7121
▁وَأَدْخِ	-7122
▁وَأُولُو	-7123
▁وَأْمُرْ	-7124
▁وَاللَّا	-7125
▁وَالْأَن	-7126
▁وَالْبَا	-7127
▁وَالْخَا	-7128
▁وَذَرُوا	-7129
▁وَضَرَبَ	-7130
▁وَعْدَهُ	-7131
▁وَلَّوْا	-7132
▁وَنُفِخَ	-7133
▁وَيُدْخِ	-7134
▁يَجْعَلَ	-7135
▁يَجْعَلُ	-7136
▁يَخْفَىٰ	-7137
▁يَرْضَىٰ	-7138
▁يَسْأَلُ	-7139
▁يَشْهَدُ	-7140
▁يَعْلَمَ	-7141
▁يَعْلَمْ	-7142
▁يُرْسِلَ	-7143
بْلُوَكُمْ	-7144
شُّهَدَاءِ	-7145
عَذَّبِينَ	-7146
عَلِّمُونَ	-7147
قَابِلِينَ	-7148
َّالِحِينَ	-7149
▁آثَارِهِم	-7150
▁أَئِمَّةً	-7151
▁أَبِيكُمْ	-7152
▁أَتَيْنَا	-7153
▁أَخُوهُمْ	-7154
▁أَرَادُوا	-7155
▁أَسَاوِرَ	-7156
▁أَشْيَاءَ	-7157
▁أَنفِقُوا	-7158
▁أَيُّكُمْ	-7159
▁أُعِدَّتْ	-7160
▁إِلَيْهَا	-7161
▁اعْتَدَىٰ	-7162
▁التَّوْبَ	-7163
▁الرُّعْبَ	-7164
▁الرِّجْسَ	-7165
▁السَّبْتِ	-7166
▁السَّلَمَ	-7167
▁السِّجْنِ	-7168
▁السِّحْرَ	-7169
▁الشَّمْسُ	-7170
▁اللَّيْلُ	-7171
▁الْأُمِّي	-7172
▁الْبَيْتَ	-7173
▁الْخَلْقِ	-7174
▁الْفَضْلُ	-7175
▁الْقَتْلِ	-7176
▁الْقُدُسِ	-7177
▁الْكَهْفِ	-7178
▁الْمَيْتَ	-7179
▁الْمُلْكَ	-7180
▁الْهَوَىٰ	-7181
▁امْرَأَتُ	-7182
▁انتِقَامٍ	-7183
▁اهْبِطُوا	-7184
▁بَأْسَنَا	-7185
▁بَعْدِهَا	-7186
▁بَعْضَهُم	-7187
▁بَعْضُهُم	-7188
▁بَيَّنَّا	-7189
▁بَيْضَاءَ	-7190
▁بَيْنَكُم	-7191
▁بَيْنِنَا	-7192
▁بِآيَاتِي	-7193
▁بِإِذْنِي	-7194
▁بِعَزِيزٍ	-7195
▁بِغُلَامٍ	-7196
▁تَزَكَّىٰ	-7197
▁تَصِفُونَ	-7198
▁تَعِدُنَا	-7199
▁تَنزِيلًا	-7200
▁تُبْدُونَ	-7201
▁تِجَارَةً	-7202
▁جَاءَكُمُ	-7203
▁جِئْتُكُم	-7204
▁حَمَلْنَا	-7205
▁خَلَائِفَ	-7206
▁دَارِهِمْ	-7207
▁دَخَلْتُم	-7208
▁دَرَجَاتٌ	-7209
▁دِينَكُمْ	-7210
▁رَسُولَهُ	-7211
▁رَّبَّنَا	-7212
▁زَيَّنَّا	-7213
▁سَيَقُولُ	-7214
▁سُلْطَانٌ	-7215
▁شَهِدْنَا	-7216
▁شَيْطَانٍ	-7217
▁شُرَكَاؤُ	-7218
▁صَلْصَالٍ	-7219
▁ظَنَنتُمْ	-7220
▁ظُلُمَاتِ	-7221
▁عَاهَدُوا	-7222
▁عَنْهُمَا	-7223
▁عِبَادِيَ	-7224
▁عِلْمُهَا	-7225
▁فَاحِشَةً	-7226
▁فَاخْرُجْ	-7227
▁فَاسْتَغْ	-7228
▁فَاعْبُدْ	-7229
▁فَاكِهَةٌ	-7230
▁فَبَشِّرْ	-7231
▁فَتَحْنَا	-7232
▁فَذَكِّرْ	-7233
▁فَصِيَامُ	-7234
▁كَتَبْنَا	-7235
▁كَثِيرَةً	-7236
▁كَثِيرَةٌ	-7237
▁كَشَفْنَا	-7238
▁لِإِخْوَا	-7239
▁لِتُنذِرَ	-7240
▁لِنَفْسِي	-7241
▁مَمْنُونٍ	-7242
▁مَنَافِعُ	-7243
▁مِنْهُنَّ	-7244
▁مَّرْضَىٰ	-7245
▁مَّعَكُمْ	-7246
▁مَّكَانًا	-7247
▁مُّقْتَدِ	-7248
▁مُّهِينًا	-7249
▁نُصَرِّفُ	-7250
▁نَّبِيًّا	-7251
▁هَدَاكُمْ	-7252
▁وَأَبْنَا	-7253
▁وَأَخِيهِ	-7254
▁وَأَعْنَا	-7255
▁وَادْعُوا	-7256
▁وَاغْفِرْ	-7257
▁وَالزَّيْ	-7258
▁وَالْأَسْ	-7259
▁وَالْمُؤْ	-7260
▁وَبَنَاتِ	-7261
▁وَزَيَّنَ	-7262
▁وَسَاءَتْ	-7263
▁وَصِيَّةٍ	-7264
▁وَطَمَعًا	-7265
▁وَقَالَتْ	-7266
▁وَكَذَّبَ	-7267
▁وَكُفْرًا	-7268
▁وَلِكُلٍّ	-7269
▁وَلِكُلِّ	-7270
▁وَمَاتُوا	-7271
▁وَمِمَّنْ	-7272
▁وَيَجْعَل	-7273
▁وَيَزِيدُ	-7274
▁وَيُولِجُ	-7275
▁يَأْتُوكَ	-7276
▁يَأْتِيهِ	-7277
▁يَتَّبِعُ	-7278
▁يَخُوضُوا	-7279
▁يُؤْذُونَ	-7280
▁يُتَوَفَّ	-7281
▁يُدَبِّرُ	-7282
▁يُعَذِّبُ	-7283
▁يُكَلِّمُ	-7284
▁يُنَزِّلْ	-7285
عْجِلُونَكَ	-7286
قْتُلُوهُمْ	-7287
▁آبَاؤُكُمْ	-7288
▁أَحَدَكُمُ	-7289
▁أَفَغَيْرَ	-7290
▁أَمْرِهِمْ	-7291
▁أَنجَيْنَا	-7292
▁أَنشَأَكُم	-7293
▁أَنفُسِهِم	-7294
▁أَنْعَمْتَ	-7295
▁أَيَحْسَبُ	-7296
▁اتَّبَعَكَ	-7297
▁اتَّبَعْتَ	-7298
▁اشْتَرَوُا	-7299
▁السَّيِّئَ	-7300
▁الْأَلِيمَ	-7301
▁الْبَاطِلَ	-7302
▁الْبَصِيرُ	-7303
▁الْجَوَارِ	-7304
▁الْجِنَّةِ	-7305
▁الْحَمِيدِ	-7306
▁الْحَمِيمِ	-7307
▁الْعَلِيمِ	-7308
▁الْعِزَّةَ	-7309
▁الْغُيُوبِ	-7310
▁الْفَسَادَ	-7311
▁الْقُبُورِ	-7312
▁الْوَاحِدُ	-7313
▁الْيَقِينِ	-7314
▁بَعْضَكُمْ	-7315
▁بُهْتَانًا	-7316
▁بِآيَاتِهِ	-7317
▁بِأَحْسَنِ	-7318
▁بِأَلْسِنَ	-7319
▁بِالسُّوءِ	-7320
▁بِحَمْدِهِ	-7321
▁بِعِلْمِهِ	-7322
▁تَذْكِرَةٌ	-7323
▁تَعْدِلُوا	-7324
▁تَكْفُرُوا	-7325
▁تَنظُرُونَ	-7326
▁تُفْسِدُوا	-7327
▁ذُرِّيَّةً	-7328
▁ذُنُوبَنَا	-7329
▁رَاجِعُونَ	-7330
▁رَّبُّكُمْ	-7331
▁زَعَمْتُمْ	-7332
▁زَوْجَيْنِ	-7333
▁صَرَّفْنَا	-7334
▁طُغْيَانًا	-7335
▁عَابِدُونَ	-7336
▁غَافِلِينَ	-7337
▁فَأَخْرَجَ	-7338
▁فَأَرْسِلْ	-7339
▁فَضَّلْنَا	-7340
▁فَعَلَيْهِ	-7341
▁فَلْيَسْتَ	-7342
▁قَوْمَهُمْ	-7343
▁قُلُوبُنَا	-7344
▁كَفَرْتُمْ	-7345
▁لَبِثْتُمْ	-7346
▁لِقَاءَنَا	-7347
▁لِلذِّكْرِ	-7348
▁لِيَحْكُمَ	-7349
▁لِيَغْفِرَ	-7350
▁مَغْفِرَةٍ	-7351
▁مَّعْلُومٌ	-7352
▁مِّثْلُنَا	-7353
▁نَادِمِينَ	-7354
▁نَعِدُهُمْ	-7355
▁نِعْمَتَهُ	-7356
▁وَآخَرُونَ	-7357
▁وَأَحْسَنُ	-7358
▁وَأَصِيلًا	-7359
▁وَاتَّبِعْ	-7360
▁وَاتَّخَذَ	-7361
▁وَالصَّابِ	-7362
▁وَالطَّيِّ	-7363
▁وَجَنَّاتٍ	-7364
▁وَعَشِيًّا	-7365
▁وَلَبِئْسَ	-7366
▁وَهَامَانَ	-7367
▁وَيُخْرِجُ	-7368
▁يَسَّرْنَا	-7369
▁يَغْلِبُوا	-7370
▁يَنطِقُونَ	-7371
▁يَنقُضُونَ	-7372
▁يَوْمِكُمْ	-7373
▁يُدْخِلْهُ	-7374
▁يُسِرُّونَ	-7375
▁يُضِلُّونَ	-7376
▁يُقِيمُونَ	-7377
تَكَبِّرِينَ	-7378
▁أَئِنَّكُمْ	-7379
▁أَجَلَهُنَّ	-7380
▁أَرْبَعِينَ	-7381
▁أَلْوَانُهُ	-7382
▁أُجُورَهُمْ	-7383
▁أُرْسِلْتُم	-7384
▁اثْنَتَيْنِ	-7385
▁الرَّجْفَةُ	-7386
▁الشَّجَرَةِ	-7387
▁الْأَيْكَةِ	-7388
▁الْإِنسَانِ	-7389
▁الْحَوَارِي	-7390
▁الْحِكْمَةَ	-7391
▁الْقَهَّارُ	-7392
▁الْمَأْوَىٰ	-7393
▁الْمَشْرِقِ	-7394
▁الْمِيعَادَ	-7395
▁امْرَأَتَهُ	-7396
▁بِالصَّبْرِ	-7397
▁بِالْأَمْسِ	-7398
▁بِالْكُفْرِ	-7399
▁بِجَهَالَةٍ	-7400
▁بِفَاحِشَةٍ	-7401
▁بِيَمِينِهِ	-7402
▁تَأْمُرُونَ	-7403
▁تَجْهَلُونَ	-7404
▁تَحْكُمُونَ	-7405
▁تَدْعُوهُمْ	-7406
▁تَزْعُمُونَ	-7407
▁تَسْتَطِيعَ	-7408
▁تَشْعُرُونَ	-7409
▁تَقْتُلُونَ	-7410
▁تَكْسِبُونَ	-7411
▁تُؤْفَكُونَ	-7412
▁تُظْلَمُونَ	-7413
▁تُقَدِّمُوا	-7414
▁خَلَقْنَاهُ	-7415
▁دَعْوَاهُمْ	-7416
▁ذُرِّيَّتِي	-7417
▁رَّحْمَتِهِ	-7418
▁سَمَّاعُونَ	-7419
▁شُرَكَائِيَ	-7420
▁صُدُورُهُمْ	-7421
▁صُدُورِكُمْ	-7422
▁طَلَّقْتُمُ	-7423
▁فَاتَّقُونِ	-7424
▁فَاسْتَعِذْ	-7425
▁فَتَوَلَّىٰ	-7426
▁قُلُوبَهُمْ	-7427
▁لَتَأْتُونَ	-7428
▁لِرَبِّهِمْ	-7429
▁لَّبِثْتُمْ	-7430
▁مُؤْمِنُونَ	-7431
▁مُجْرِمِينَ	-7432
▁مُحْضَرُونَ	-7433
▁نُرِيَنَّكَ	-7434
▁وَأَخَذْنَا	-7435
▁وَأَزْوَاجُ	-7436
▁وَأَسَرُّوا	-7437
▁وَأَنفَقُوا	-7438
▁وَأَنفِقُوا	-7439
▁وَأَنَّهُمْ	-7440
▁وَاتَّقَوْا	-7441
▁وَاتَّقُوهُ	-7442
▁وَاسْمَعُوا	-7443
▁وَالْقَمَرُ	-7444
▁وَجَاهِدُوا	-7445
▁وَجَعَلَنِي	-7446
▁وَذُرِّيَّا	-7447
▁وَهَاجَرُوا	-7448
▁وَيُعَذِّبُ	-7449
▁وُجُوهِهِمْ	-7450
▁يَحْسَبُونَ	-7451
▁يَحْكُمُونَ	-7452
▁يَدْعُوكُمْ	-7453
▁يَرْزُقُكُم	-7454
▁يَسْجُدُونَ	-7455
▁يَشْتَرُونَ	-7456
▁يَشْهَدُونَ	-7457
▁يَنفَعُهُمْ	-7458
▁يُمِيتُكُمْ	-7459
▁أَفَرَأَيْتَ	-7460
▁أَيْدِيَكُمْ	-7461
▁إِيمَانِكُمْ	-7462
▁اسْتَجَابُوا	-7463
▁اسْتَطَاعُوا	-7464
▁اسْتَقَامُوا	-7465
▁السُّفَهَاءُ	-7466
▁الْأَحْزَابُ	-7467
▁الْأَحْزَابِ	-7468
▁الْأَسْمَاءُ	-7469
▁الْجَمْعَانِ	-7470
▁الْفَاحِشَةَ	-7471
▁الْمُتَوَكِّ	-7472
▁بِالْعَشِيِّ	-7473
▁بِالْكِتَابِ	-7474
▁بِكُفْرِهِمْ	-7475
▁تَتَوَلَّوْا	-7476
▁تَسْأَلُهُمْ	-7477
▁تَوَكَّلْنَا	-7478
▁رَأَيْتَهُمْ	-7479
▁سَيَقُولُونَ	-7480
▁فَأَنبَتْنَا	-7481
▁فَلِنَفْسِهِ	-7482
▁فَيَوْمَئِذٍ	-7483
▁لَصَادِقُونَ	-7484
▁لَنَكُونَنَّ	-7485
▁لَيَقُولَنَّ	-7486
▁لَيَقُولُونَ	-7487
▁لِلتَّقْوَىٰ	-7488
▁لِيُؤْمِنُوا	-7489
▁مُتَّكِئِينَ	-7490
▁مِيثَاقَكُمْ	-7491
▁وَأَقْسَمُوا	-7492
▁وَإِيَّاكُمْ	-7493
▁وَالرَّسُولَ	-7494
▁وَالسَّمَاءَ	-7495
▁وَالْأُنثَىٰ	-7496
▁وَالْبَصِيرُ	-7497
▁وَالْقُرْآنِ	-7498
▁وَتَوَاصَوْا	-7499
▁وَلَنَجْزِيَ	-7500
▁وَمَغْفِرَةٌ	-7501
▁وَمُنذِرِينَ	-7502
▁وَيَصُدُّونَ	-7503
▁وَيَنْهَوْنَ	-7504
▁يُحَرِّفُونَ	-7505
▁يُذْهِبْكُمْ	-7506
▁يُنَادِيهِمْ	-7507
▁أَبْنَاءَكُمْ	-7508
▁أَبْنَاءَهُمْ	-7509
▁أَعْمَالَكُمْ	-7510
▁أَعْمَالُكُمْ	-7511
▁أَفَرَأَيْتُم	-7512
▁أَفْوَاهِهِمْ	-7513
▁أَمْوَالُكُمْ	-7514
▁أَيْمَانُهُمْ	-7515
▁أَيْمَانِكُمْ	-7516
▁الشَّيَاطِينُ	-7517
▁الشَّيَاطِينِ	-7518
▁الْبَحْرَيْنِ	-7519
▁الْبَيِّنَاتِ	-7520
▁الْغَالِبِينَ	-7521
▁الْفَائِزُونَ	-7522
▁الْقَاعِدِينَ	-7523
▁بُرْهَانَكُمْ	-7524
▁بِأَعْيُنِنَا	-7525
▁بِوَالِدَيْهِ	-7526
▁فَأَغْرَقْنَا	-7527
▁فَأَهْلَكْنَا	-7528
▁فَانتَقَمْنَا	-7529
▁فَتَرَبَّصُوا	-7530
▁لَأَمْلَأَنَّ	-7531
▁مَكَانَتِكُمْ	-7532
▁مُّسْتَقِيمًا	-7533
▁وَأَغْرَقْنَا	-7534
▁وَأَلْقَيْنَا	-7535
▁وَأَوْرَثْنَا	-7536
▁وَالضَّرَّاءِ	-7537
▁وَسُلَيْمَانَ	-7538
▁وَعَلَانِيَةً	-7539
▁وَمَأْوَاهُمْ	-7540
▁وَيَأْمُرُونَ	-7541
▁وَيَعْبُدُونَ	-7542
▁وَيَقْتُلُونَ	-7543
▁يَخْتَصِمُونَ	-7544
▁يَصْلَوْنَهَا	-7545
▁أَهْلَكْنَاهَا	-7546
▁إِخْوَانِهِنَّ	-7547
▁الْمُبْطِلُونَ	-7548
▁الْمُحْصَنَاتِ	-7549
▁الْمُعْتَدِينَ	-7550
▁الْمُمْتَرِينَ	-7551
▁فَاسْتَجَبْنَا	-7552
▁فَسَيَقُولُونَ	-7553
▁وَأَكْثَرُهُمْ	-7554
▁وَإِبْرَاهِيمَ	-7555
▁وَالْأَنْعَامِ	-7556
▁وَلِتَبْتَغُوا	-7557
▁وَنَجَّيْنَاهُ	-7558
▁آتَيْتُمُوهُنَّ	-7559
▁الْجَاهِلِيَّةِ	-7560
▁الْمُقَرَّبُونَ	-7561
▁الْمُقَرَّبِينَ	-7562
▁وَاسْتَكْبَرُوا	-7563
▁وَالصَّابِرِينَ	-7564
▁وَالْأَفْئِدَةَ	-7565
أٌ	-7566
آنَ	-7567
آنُ	-7568
أْذ	-7569
بِا	-7570
صَى	-7571
صُّ	-7572
فَى	-7573
مَى	-7574
نتُ	-7575
نكَ	-7576
نَى	-7577
ِنٍ	-7578
ِنْ	-7579
ِيت	-7580
▁طس	-7581
أَهُ	-7582
أْتِ	-7583
أْسٍ	-7584
ئَةِ	-7585
ئِرُ	-7586
ئِقَ	-7587
بَإٍ	-7588
بَةِ	-7589
بَتِ	-7590
بَرِ	-7591
بَلٍ	-7592
بِرْ	-7593
بِلِ	-7594
بْدُ	-7595
بْدِ	-7596
بْرٌ	-7597
تَفِ	-7598
تَيْ	-7599
أَةَ	-7600
ؤُهُ	-7601
بِقُ	-7602
تْرِ	-7603
تْلَ	-7604
ثَهُ	-7605
ثْمَ	-7606
جَتْ	-7607
جَرَ	-7608
جَسَ	-7609
جَيْ	-7610
جُرَ	-7611
جِعِ	-7612
جِكَ	-7613
حِرٍ	-7614
حِكَ	-7615
حْكَ	-7616
حْلِ	-7617
دَةُ	-7618
دَوا	-7619
دُسٍ	-7620
دِدْ	-7621
دِرَ	-7622
دْرٍ	-7623
ذِبِ	-7624
ذِّن	-7625
رَأْ	-7626
رَقَ	-7627
رِغْ	-7628
رِفُ	-7629
رِقُ	-7630
رْكِ	-7631
زَةٍ	-7632
زَغَ	-7633
زَىٰ	-7634
سَدَ	-7635
سَلَ	-7636
سُهُ	-7637
سِبْ	-7638
سِّن	-7639
صَةً	-7640
صَلَ	-7641
صِلُ	-7642
صْرُ	-7643
صْلَ	-7644
ضَةٌ	-7645
ضَعُ	-7646
ضْنَ	-7647
طَلِ	-7648
عَةَ	-7649
عَجِ	-7650
عُمْ	-7651
عْثِ	-7652
غَةً	-7653
غَتْ	-7654
فَتِ	-7655
فَيْ	-7656
فُسُ	-7657
فُقَ	-7658
فْسٍ	-7659
فْلِ	-7660
قَبَ	-7661
قَةِ	-7662
قَهُ	-7663
قُصُ	-7664
قُمْ	-7665
قِعٌ	-7666
قْبِ	-7667
قْتِ	-7668
قْذِ	-7669
كَرُ	-7670
كُرْ	-7671
كِنَ	-7672
كًّا	-7673
كْرُ	-7674
كْهُ	-7675
لَةٌ	-7676
لَةِ	-7677
لَعَ	-7678
لَكُ	-7679
لُكَ	-7680
لِحْ	-7681
لِنُ	-7682
مِسَ	-7683
مِسْ	-7684
مًّا	-7685
مْرِ	-7686
نَةً	-7687
هَقَ	-7688
هِرُ	-7689
هْنِ	-7690
وَزْ	-7691
وُوا	-7692
وْلِ	-7693
يَةً	-7694
يَةَ	-7695
يْسِ	-7696
ُنِي	-7697
ِنُّ	-7698
ُّمَ	-7699
آصَا	-7700
بُعُ	-7701
بُكَ	-7702
دْقِ	-7703
صُصْ	-7704
عِرٍ	-7705
فَهُ	-7706
فِضْ	-7707
لُقُ	-7708
لْجَ	-7709
نتُم	-7710
وَةُ	-7711
وَمُ	-7712
يُسْ	-7713
▁آخِ	-7714
▁أُذ	-7715
▁إِذ	-7716
▁اكْ	-7717
▁الز	-7718
▁تَه	-7719
▁حُو	-7720
▁دَّ	-7721
▁رَآ	-7722
▁فَأ	-7723
▁فَي	-7724
▁قِي	-7725
▁وَح	-7726
أْسًا	-7727
ؤَخِّ	-7728
ئَاءَ	-7729
بَاءُ	-7730
بَاتُ	-7731
بَاعَ	-7732
بَدَّ	-7733
بَلِّ	-7734
بَهَا	-7735
بَوَّ	-7736
بُوتِ	-7737
بِهِم	-7738
بِيِّ	-7739
تَاعٌ	-7740
تَهُم	-7741
تِمُّ	-7742
تَّوْ	-7743
ثَالِ	-7744
جَابَ	-7745
جُهُم	-7746
جِيبٌ	-7747
جَّلَ	-7748
جْدَا	-7749
جْزًا	-7750
حَرَّ	-7751
حُوهُ	-7752
حِيضِ	-7753
حْتُم	-7754
خَاهُ	-7755
خُلِي	-7756
خُونَ	-7757
دَارُ	-7758
دَاكَ	-7759
دُنِي	-7760
دُنَّ	-7761
دِيدَ	-7762
دِيًا	-7763
دَّلَ	-7764
ذَبِّ	-7765
رَاءً	-7766
رَاجُ	-7767
رَادَ	-7768
رَارُ	-7769
رَنَا	-7770
رُوجٍ	-7771
رِيمِ	-7772
رِيُّ	-7773
رْتَا	-7774
رْجُو	-7775
رْكُم	-7776
زَاجُ	-7777
زَّتْ	-7778
سَاءً	-7779
سَابَ	-7780
سَاتٍ	-7781
سُلًا	-7782
سُوقُ	-7783
سُوهُ	-7784
سْرًا	-7785
سْرَا	-7786
سْمَا	-7787
شِّرَ	-7788
شْهُو	-7789
صَاكَ	-7790
صَدَّ	-7791
صْبَا	-7792
ضَرَّ	-7793
ضُودٍ	-7794
طَارِ	-7795
طَافُ	-7796
ظَالِ	-7797
عَزُّ	-7798
عُوكَ	-7799
بَإِ	-7800
حَدٍ	-7801
دْعُ	-7802
زِلُ	-7803
لْبٍ	-7804
هْطِ	-7805
ُّلُ	-7806
▁أُف	-7807
دُوِّ	-7808
دْوَا	-7809
رَابُ	-7810
سَافِ	-7811
صِفَا	-7812
صْنَا	-7813
طَاعَ	-7814
عَالِ	-7815
عَامٍ	-7816
عِزَّ	-7817
عِنَا	-7818
عِيدُ	-7819
عِيشَ	-7820
عْنِي	-7821
عْهَا	-7822
غْلُو	-7823
فَاقِ	-7824
فَتَّ	-7825
فُوهُ	-7826
قِنَا	-7827
قِيمٍ	-7828
قِيمِ	-7829
قِيهِ	-7830
قْنِي	-7831
كَاةِ	-7832
كَارِ	-7833
كِينٍ	-7834
لَاقٍ	-7835
لَالِ	-7836
لِيهِ	-7837
لَّةَ	-7838
لَّةِ	-7839
لَّتْ	-7840
لْقِي	-7841
مُكُم	-7842
نَاتٍ	-7843
نَبَّ	-7844
نَهُم	-7845
نِيهِ	-7846
نِيَّ	-7847
هُونِ	-7848
هُوهُ	-7849
وَابٍ	-7850
وَادِ	-7851
وَاعَ	-7852
وَالٍ	-7853
وَانٌ	-7854
وُنَّ	-7855
وِيُّ	-7856
وَّىٰ	-7857
وِّرُ	-7858
وِّفُ	-7859
يَاةِ	-7860
يَالٍ	-7861
يَسِّ	-7862
يِّتٍ	-7863
▁آنَا	-7864
▁أَثَ	-7865
▁أَسِ	-7866
▁أَطَ	-7867
▁إِعْ	-7868
▁إِلْ	-7869
▁إِمْ	-7870
▁انصُ	-7871
▁بَخِ	-7872
▁بِثَ	-7873
▁بِدُ	-7874
▁بِصَ	-7875
▁تَجَ	-7876
▁تَلَ	-7877
▁تَيَ	-7878
▁تُسْ	-7879
▁تُعْ	-7880
▁تِسْ	-7881
▁جُزْ	-7882
▁جُنُ	-7883
▁حُنَ	-7884
▁حِذْ	-7885
▁حِمْ	-7886
▁خُلَ	-7887
▁رَجْ	-7888
▁رَحِ	-7889
▁رَمَ	-7890
▁رَهْ	-7891
▁سَتُ	-7892
▁سُئِ	-7893
▁صَفْ	-7894
▁صَلَ	-7895
▁صَوْ	-7896
▁ضَلَ	-7897
▁طَرْ	-7898
▁عَسَ	-7899
أْنِ	-7900
ئْبُ	-7901
بِلٌ	-7902
حْنَ	-7903
خَذُ	-7904
قُّو	-7905
بَوِّ	-7906
ثِيرُ	-7907
حِجَا	-7908
خَطَّ	-7909
صِيلَ	-7910
طِيعُ	-7911
ظِيمٌ	-7912
فَادِ	-7913
فَقًا	-7914
قَطَّ	-7915
قُّوا	-7916
لِيلٌ	-7917
مَّدٌ	-7918
ُلْزِ	-7919
ِّيَا	-7920
▁بِشِ	-7921
▁رُشْ	-7922
▁عَوْ	-7923
▁عُصْ	-7924
▁عُمُ	-7925
▁عُمْ	-7926
▁عِمْ	-7927
▁غَمْ	-7928
▁غَوْ	-7929
▁غُرَ	-7930
▁غُلْ	-7931
▁فَبُ	-7932
▁قَدِ	-7933
▁قُرْ	-7934
▁قِبْ	-7935
▁كَدَ	-7936
▁كَعَ	-7937
▁كَلْ	-7938
▁كُرْ	-7939
▁لَبَ	-7940
▁لِفَ	-7941
▁لِمُ	-7942
▁مَطَ	-7943
▁مَطْ	-7944
▁نَبْ	-7945
▁نَجْ	-7946
▁نَذَ	-7947
▁نَزْ	-7948
▁نَضْ	-7949
▁نَقَ	-7950
▁نَكَ	-7951
▁نُصْ	-7952
▁نُوَ	-7953
▁وَضُ	-7954
▁وَفُ	-7955
▁وَقِ	-7956
▁وَلُ	-7957
▁وَلْ	-7958
▁يَخِ	-7959
▁يَرِ	-7960
▁يُتْ	-7961
▁يُذْ	-7962
▁يُصِ	-7963
▁يُقَ	-7964
▁يُقْ	-7965
▁يُكْ	-7966
▁يُلَ	-7967
آصَالِ	-7968
أَمَةِ	-7969
أْسِهِ	-7970
ؤْمِنٍ	-7971
ئَلَّا	-7972
ئِقَةُ	-7973
بَاتًا	-7974
بَارًا	-7975
بَشَرِ	-7976
بَكُمْ	-7977
بَهُمُ	-7978
بِيرًا	-7979
بْهُمُ	-7980
بْهُمْ	-7981
تُبِهِ	-7982
تُهُمُ	-7983
تِحَتْ	-7984
جَاجًا	-7985
جُورًا	-7986
جِلَةَ	-7987
جْتُمْ	-7988
جْرِيَ	-7989
جْعَلِ	-7990
جْمَعَ	-7991
حْتَمَ	-7992
خَرَجَ	-7993
خَيْرٌ	-7994
خِذُوا	-7995
خْفِضْ	-7996
دَتْهُ	-7997
دِكُمْ	-7998
دِيَةٌ	-7999
ئِلِ	-8000
ثَانِ	-8001
مَاتٍ	-8002
▁ظُلَ	-8003
دَّهَا	-8004
دُّوهُ	-8005
دْنَىٰ	-8006
دْيَةٌ	-8007
ذِقْهُ	-8008
رَاعًا	-8009
رَكَهُ	-8010
رُونًا	-8011
رِبَتْ	-8012
رِضُوا	-8013
رِعَةُ	-8014
رِيرًا	-8015
رَّاءَ	-8016
رَّاءُ	-8017
رُّعًا	-8018
زِهِمْ	-8019
سَارًا	-8020
سَوْفَ	-8021
سِكُمْ	-8022
سِلُوا	-8023
سِيرًا	-8024
شَيْءٌ	-8025
شِرُوا	-8026
شَّارِ	-8027
شْأَةَ	-8028
شْرَةَ	-8029
شْرِكُ	-8030
صَرُوا	-8031
صَمُوا	-8032
صُرُوا	-8033
صِمُوا	-8034
صِيًّا	-8035
صْرِهِ	-8036
ضِعِهِ	-8037
ضْرِبُ	-8038
طَامًا	-8039
طَّيِّ	-8040
ظِرَةٌ	-8041
ظْلِمَ	-8042
عَافًا	-8043
عَكُمْ	-8044
عَلَىٰ	-8045
عُودًا	-8046
عُونِي	-8047
عْبُدَ	-8048
عْتَدٍ	-8049
عْرَضَ	-8050
فَاتًا	-8051
فَاقًا	-8052
فَعُوا	-8053
فُوهَا	-8054
فُوًّا	-8055
فَّارَ	-8056
فْسِدَ	-8057
قَالًا	-8058
قَاهَا	-8059
قَدْرِ	-8060
قَرًّا	-8061
قَوْنَ	-8062
قُونَا	-8063
قِكُمْ	-8064
قِيبًا	-8065
قِيلًا	-8066
قِيمًا	-8067
قْرِضُ	-8068
قْعُدَ	-8069
كَالًا	-8070
كِحُوا	-8071
كْتُبُ	-8072
كْتُمْ	-8073
لَاهَا	-8074
لَمْتُ	-8075
لَيْتُ	-8076
لُهُمُ	-8077
لْوَىٰ	-8078
مَلَتْ	-8079
مَنَةِ	-8080
مَنَّا	-8081
مْتُمُ	-8082
نُهُمُ	-8083
نِيَةٌ	-8084
نُّورُ	-8085
نْهَىٰ	-8086
هَادًا	-8087
هْزِئَ	-8088
هْلِكُ	-8089
وَابِّ	-8090
وَيْتَ	-8091
يُّوبَ	-8092
ُلِنَا	-8093
ُمِدُّ	-8094
َّكُمْ	-8095
ُّهُمْ	-8096
ِّيَتْ	-8097
▁آذَنَ	-8098
▁آيَةَ	-8099
▁أَئِن	-8100
▁أَخَّ	-8101
▁أَذَا	-8102
▁أَفَا	-8103
▁أَلَّ	-8104
▁أُعِي	-8105
▁أُفٍّ	-8106
▁أُمُّ	-8107
▁أُورِ	-8108
▁إِنسٌ	-8109
▁اخْتَ	-8110
▁الشُّ	-8111
▁الظِّ	-8112
▁الْجُ	-8113
▁الْهُ	-8114
▁بَابٍ	-8115
▁بَاغٍ	-8116
▁بِأَن	-8117
▁بِبَا	-8118
▁بِتَا	-8119
▁بِذَن	-8120
▁بِضَا	-8121
▁بِّعَ	-8122
▁تَرْض	-8123
▁تَفِي	-8124
▁تَمَس	-8125
▁تُنظِ	-8126
▁ثَمَّ	-8127
▁جَادَ	-8128
▁جَاعِ	-8129
▁جَاهَ	-8130
▁جَاهِ	-8131
▁جِدَا	-8132
▁حَاشِ	-8133
▁حَرِي	-8134
▁حَرِّ	-8135
▁حَيَّ	-8136
▁خَابَ	-8137
▁خَاطِ	-8138
▁خَصِي	-8139
▁خَفِي	-8140
▁خَوَّ	-8141
▁دَارَ	-8142
▁دَافِ	-8143
▁دُعَا	-8144
▁رَآهُ	-8145
▁سَافِ	-8146
▁سَامِ	-8147
▁سَيِّ	-8148
▁سِرَّ	-8149
▁شَرِي	-8150
▁شَرَّ	-8151
▁شُهُو	-8152
▁شِهَا	-8153
▁صَاغِ	-8154
▁صَدِي	-8155
▁صَوَا	-8156
▁صُمٌّ	-8157
▁ضُرٌّ	-8158
▁ضُرٍّ	-8159
▁عَادَ	-8160
▁عَاقِ	-8161
▁عَامٍ	-8162
▁عَرَّ	-8163
▁عَشِي	-8164
▁عُرُو	-8165
▁فَاكِ	-8166
▁فَسِي	-8167
▁فَفِي	-8168
▁فُؤَا	-8169
▁فُصِّ	-8170
▁قُدَّ	-8171
▁قُرَّ	-8172
▁قِتَا	-8173
▁كَنزٌ	-8174
▁كُلٍّ	-8175
▁كُنَّ	-8176
▁لَفَا	-8177
▁لَمَن	-8178
▁لِذَن	-8179
▁لِيُن	-8180
▁لَّأَ	-8181
▁لَّيَ	-8182
▁لِّكَ	-8183
▁مَاءَ	-8184
▁مَفَا	-8185
▁مَنَّ	-8186
▁مَّخْ	-8187
▁مَّدْ	-8188
▁مَّمْ	-8189
▁مِّدْ	-8190
▁نَارَ	-8191
▁نَّكَ	-8192
▁هَدَى	-8193
▁وَاجْ	-8194
▁وَاحْ	-8195
▁وَارِ	-8196
▁وَاغْ	-8197
▁وَاقٍ	-8198
▁وَدَا	-8199
▁وَزَا	-8200
▁وَزِي	-8201
▁وَشَا	-8202
▁وَطَا	-8203
▁وَقَد	-8204
▁وَّنَ	-8205
▁يَابِ	-8206
▁يَصَّ	-8207
▁يَكَا	-8208
▁يَنسِ	-8209
▁يَنفَ	-8210
▁يَنكُ	-8211
▁يَهِي	-8212
▁يُجِي	-8213
▁يُحِي	-8214
▁يُشَا	-8215
▁يُغَا	-8216
▁يُلَا	-8217
▁يُوعَ	-8218
▁يُوقَ	-8219
▁يُوَا	-8220
أْسَاءِ	-8221
ؤْلُؤًا	-8222
ئِبِينَ	-8223
ئِنِينَ	-8224
بَسُونَ	-8225
بَلِّغُ	-8226
بِرُونَ	-8227
بِسُونَ	-8228
بِّرُوا	-8229
تُهُنَّ	-8230
تُوبُوا	-8231
تِمُّوا	-8232
تَّبِعْ	-8233
تَّخَذْ	-8234
ثَبِّتَ	-8235
جِدَنَّ	-8236
جْدَاثِ	-8237
جْنُونٍ	-8238
حَبُونَ	-8239
حِدُونَ	-8240
حْسَانٍ	-8241
حْيُونَ	-8242
خْفُونَ	-8243
دَائِقَ	-8244
دَائِنِ	-8245
دَاكُمْ	-8246
دِفُونَ	-8247
دَّهُمْ	-8248
دْنَاهُ	-8249
ذُونَهُ	-8250
ذِبُونَ	-8251
ذْقَانِ	-8252
رَبَّصُ	-8253
رَسُولٍ	-8254
رُسُونَ	-8255
رُوهُمْ	-8256
رِثُهَا	-8257
رِيَاتِ	-8258
رْتَنِي	-8259
زَلْنَا	-8260
زِلِينَ	-8261
سَاهُمْ	-8262
سَبِّحُ	-8263
سُّوهَا	-8264
شَرْنَا	-8265
شَفْنَا	-8266
صِحِينَ	-8267
صِرُونَ	-8268
صْحَابِ	-8269
ضَاجِعِ	-8270
طَّلِعُ	-8271
ظِرْنِي	-8272
عَفَاءُ	-8273
عُولَتِ	-8274
عِبِينَ	-8275
عِدُونَ	-8276
عِينُوا	-8277
غَانِمَ	-8278
غُدُوِّ	-8279
فَرِّقُ	-8280
فِكُونَ	-8281
قَائِهِ	-8282
قَادِرٍ	-8283
قَاهُمْ	-8284
قَبَّلْ	-8285
قَلِّبُ	-8286
قِدُونَ	-8287
قَّاهَا	-8288
كَارَىٰ	-8289
كَفِّرَ	-8290
كَلِّمَ	-8291
لَبُونَ	-8292
لَيْنَا	-8293
لِحِينَ	-8294
لِيكُمْ	-8295
لَّغْوِ	-8296
لَّمَةٌ	-8297
لَّمَهُ	-8298
لَّوْنَ	-8299
مَهُمَا	-8300
مَّمُوا	-8301
نَنتُمْ	-8302
نَيْنَا	-8303
نُّذُرِ	-8304
هَوَاتِ	-8305
هْدِينِ	-8306
وَفَّيَ	-8307
وَّابًا	-8308
ُلْقُوا	-8309
ِنزِيرِ	-8310
▁آذَانٌ	-8311
▁آمَنتُ	-8312
▁أَبَىٰ	-8313
▁أَبْرَ	-8314
▁أَجِدُ	-8315
▁أَجْرُ	-8316
▁أَخْذَ	-8317
▁أَسْلَ	-8318
▁أَلْقِ	-8319
▁أَنجَا	-8320
▁أَهُمْ	-8321
▁أُمَمٌ	-8322
▁اتَّخَ	-8323
▁اجْعَل	-8324
▁اضْرِب	-8325
▁الْحُو	-8326
▁الْقُو	-8327
▁الْمَن	-8328
▁الْمُو	-8329
▁بَأْسٍ	-8330
▁بَرْزَ	-8331
▁بَلَغْ	-8332
▁بَيْتٍ	-8333
▁بَيْعٌ	-8334
▁بِخَلْ	-8335
▁تَأْسَ	-8336
▁تَأْمُ	-8337
▁تَحْتِ	-8338
▁تَرْضَ	-8339
▁تَرْكَ	-8340
▁تَرْهَ	-8341
▁تَسُؤْ	-8342
▁تَظْلِ	-8343
▁تَلْقَ	-8344
▁تَمْتَ	-8345
▁تُبْتُ	-8346
▁تُشْرِ	-8347
▁تُعْجِ	-8348
▁تُغْنِ	-8349
▁تُكْرِ	-8350
▁تِسْعَ	-8351
▁جَبَلٍ	-8352
▁حَرَجٍ	-8353
▁حَسِبَ	-8354
▁حَظًّا	-8355
▁حَمَإٍ	-8356
▁حُبًّا	-8357
▁حُرُمٌ	-8358
▁حُسْنُ	-8359
▁حِزْبَ	-8360
▁حِلْيَ	-8361
▁خَزَنَ	-8362
▁خَشِيَ	-8363
▁خُضْرٍ	-8364
▁دَكًّا	-8365
▁دُبُرٍ	-8366
▁دُعُوا	-8367
▁دُونِي	-8368
▁رَفَعَ	-8369
▁زُخْرُ	-8370
▁سَبْعٌ	-8371
▁سَدًّا	-8372
▁سَعَىٰ	-8373
▁سَعْيَ	-8374
▁سَعْيُ	-8375
▁سَقَرَ	-8376
▁سَمِعَ	-8377
▁سَوَّا	-8378
▁سَوْءٍ	-8379
▁سُلَيْ	-8380
▁شَجَرَ	-8381
▁شَطْرَ	-8382
▁شِئْتَ	-8383
▁صَرْصَ	-8384
▁صِدِّي	-8385
▁طَبَعَ	-8386
▁عَامًا	-8387
▁عَدَدَ	-8388
▁عَزْمِ	-8389
▁عَصَوا	-8390
▁عَقِبَ	-8391
▁عَمَدٍ	-8392
▁عَهِدَ	-8393
▁عَيْنٍ	-8394
▁عِلْمَ	-8395
▁غَيْبُ	-8396
▁فَأَبَ	-8397
▁فَرَجَ	-8398
▁فَلَنُ	-8399
▁فَلَنْ	-8400
▁فَمِنَ	-8401
▁فَوَجَ	-8402
▁فِئَةٍ	-8403
▁قَوَّا	-8404
▁قَوْلُ	-8405
▁قِبْلَ	-8406
▁قِيلًا	-8407
▁كَسَبَ	-8408
▁كَمَنْ	-8409
▁كَوْكَ	-8410
▁كَيْدُ	-8411
▁لَذِكْ	-8412
▁لَعِبٌ	-8413
▁لَقَوْ	-8414
▁لِتَأْ	-8415
▁لِمَنِ	-8416
▁لَّخَا	-8417
▁مَسْجِ	-8418
▁مُرْسِ	-8419
▁مُشْتَ	-8420
▁مُصْفَ	-8421
▁مُفْتَ	-8422
▁مُهْلِ	-8423
▁مَّرَّ	-8424
▁مُّنكَ	-8425
▁مِّائَ	-8426
▁نَصَبٌ	-8427
▁نَصَرَ	-8428
▁نُفِخَ	-8429
▁نِصْفُ	-8430
▁نَّصِي	-8431
▁هَدَىٰ	-8432
▁هَيِّن	-8433
▁وَآتَى	-8434
▁وَآثَا	-8435
▁وَأَتْ	-8436
▁وَأَخْ	-8437
▁وَأَشَ	-8438
▁وَأَنِ	-8439
▁وَإِذِ	-8440
▁وَإِنِ	-8441
▁وَإِيت	-8442
▁وَانتَ	-8443
▁وَانصُ	-8444
▁وَتَرْ	-8445
▁وَحَمَ	-8446
▁وَزَوْ	-8447
▁وَسَنَ	-8448
▁وَصَدَ	-8449
▁وَعَنِ	-8450
▁وَقَلْ	-8451
▁وَلَوِ	-8452
▁وَلَيُ	-8453
▁وَلِأُ	-8454
▁وَلْتَ	-8455
▁وَنَخْ	-8456
▁وَنَفَ	-8457
▁وَهَلْ	-8458
▁وَوَضَ	-8459
▁وَوَلَ	-8460
▁وَيَسْ	-8461
▁وَيَفْ	-8462
▁وُعِدَ	-8463
▁يَتَرَ	-8464
▁يَجْرِ	-8465
▁يَحْتَ	-8466
▁يَدَهُ	-8467
▁يَدْخُ	-8468
▁يَدْعُ	-8469
▁يَذْهَ	-8470
▁يَرَهُ	-8471
▁يَرْحَ	-8472
▁يَسْرِ	-8473
▁يَسْلُ	-8474
▁يَفْتِ	-8475
▁يَقْرَ	-8476
▁يَكُنْ	-8477
▁يُؤْتَ	-8478
▁يُحْشَ	-8479
▁يُحْمَ	-8480
▁يُدْرِ	-8481
▁يُرِدِ	-8482
▁يُعْجِ	-8483
أَنَّمَا	-8484
بَشِّرًا	-8485
بَّرُونَ	-8486
تُمُونَا	-8487
تِلْتُمْ	-8488
تَّعُونَ	-8489
تَّوْرَا	-8490
جِيبُونَ	-8491
جَّرْنَا	-8492
جْعَلُهُ	-8493
حَادِيثِ	-8494
حِبُّونَ	-8495
خَافُونَ	-8496
خْرِيًّا	-8497
دَتْهُمْ	-8498
رِّجَالِ	-8499
رْتَهُمْ	-8500
رْنَيْنِ	-8501
زَعْتُمْ	-8502
سْجُدُوا	-8503
سْرِفُوا	-8504
صَلِّينَ	-8505
صْفَحُوا	-8506
ضْرِبُوا	-8507
ظْهِرَهُ	-8508
عُوهُنَّ	-8509
قْبَلُوا	-8510
قْسِطُوا	-8511
قْعُدُوا	-8512
قْنَاهُم	-8513
كُونُونَ	-8514
كِنِهِمْ	-8515
لَّلْنَا	-8516
مْسَحُوا	-8517
هْدِهِمْ	-8518
وَّجْنَا	-8519
وْنَهُمْ	-8520
يَاطِينَ	-8521
يْمَنَةِ	-8522
ُوَفِّيَ	-8523
ِنُونَكَ	-8524
َّتُهُمْ	-8525
▁آنَسْتُ	-8526
▁أَجَلًا	-8527
▁أَحَلَّ	-8528
▁أَحْصَا	-8529
▁أَخْبَا	-8530
▁أَذِلَّ	-8531
▁أَرَاكَ	-8532
▁أَصْوَا	-8533
▁أَظُنُّ	-8534
▁أَغْنِي	-8535
▁أَفَاءَ	-8536
▁أَلْقَى	-8537
▁أَمَدًا	-8538
▁أَنَابَ	-8539
▁أَنَّكَ	-8540
▁أَوَلَا	-8541
▁أَوَّلُ	-8542
▁أَيُّهَ	-8543
▁أُنَاسٍ	-8544
▁اجْعَلْ	-8545
▁اعْتَزَ	-8546
▁افْتَرَ	-8547
▁اقْرَأْ	-8548
▁الثُّلُ	-8549
▁الرُّشْ	-8550
▁الصُّحُ	-8551
▁الْأَبْ	-8552
▁الْأَقْ	-8553
▁الْبَرْ	-8554
▁الْبَقَ	-8555
▁الْفُقَ	-8556
▁الْهَدْ	-8557
▁بَالِغَ	-8558
▁بَنِيَّ	-8559
▁بُشِّرَ	-8560
▁بُشْرًا	-8561
▁بِالْأُ	-8562
▁بِالْغَ	-8563
▁بِالْفَ	-8564
▁بِالْوَ	-8565
▁بِجُنُو	-8566
▁بِخَارِ	-8567
▁بِخَلَا	-8568
▁بِرَسُو	-8569
▁بِرُوحِ	-8570
▁بِضَاعَ	-8571
▁بِهِمَا	-8572
▁بِهِنَّ	-8573
▁تَظَاهَ	-8574
▁تَقَرَّ	-8575
▁تَقُومَ	-8576
▁تَكَادُ	-8577
▁تَمُوتُ	-8578
▁تَمِيدَ	-8579
▁تَنتَهِ	-8580
▁تَهْدِي	-8581
▁تُحَرِّ	-8582
▁تُرِيدُ	-8583
▁تُصِيبَ	-8584
▁جَمِيعٌ	-8585
▁جَمْعًا	-8586
▁جَنَّةٌ	-8587
▁جَنَّةٍ	-8588
▁جِنَّةٌ	-8589
▁حَاجَةً	-8590
▁حَقَّهُ	-8591
▁خَطِيئَ	-8592
▁خَفَّتْ	-8593
▁خِيفَةً	-8594
▁دَابِرَ	-8595
▁دَعَوُا	-8596
▁دَعَوْا	-8597
▁دُعَاءَ	-8598
▁رَبُّكِ	-8599
▁رَبِّكِ	-8600
▁رَبِّيَ	-8601
▁رَغَدًا	-8602
▁رُؤْيَا	-8603
▁رُدُّوا	-8604
▁رِجْزًا	-8605
▁رَّحِمَ	-8606
▁رَّضِيَ	-8607
▁رِّزْقٍ	-8608
▁زَرْعًا	-8609
▁سَاحِرٍ	-8610
▁سَبَّحَ	-8611
▁سَوَاءٍ	-8612
▁سُندُسٍ	-8613
▁شَاهِدٌ	-8614
▁شَفِيعٍ	-8615
▁طَاعَةٌ	-8616
▁طَعَامٌ	-8617
▁طَعَامُ	-8618
▁طَيْرًا	-8619
▁عَامِلٌ	-8620
▁عَدَدًا	-8621
▁عَصَاكَ	-8622
▁عَصَاهُ	-8623
▁عَنِيدٍ	-8624
▁عُدْنَا	-8625
▁عُدْوَا	-8626
▁عِبَادُ	-8627
▁عِقَابِ	-8628
▁غَلِيظٍ	-8629
▁فَآمَنَ	-8630
▁فَاجْتَ	-8631
▁فَاذْهَ	-8632
▁فَاسْلُ	-8633
▁فَاطِرِ	-8634
▁فَاكْتُ	-8635
▁فَتَيَا	-8636
▁فَجَاءَ	-8637
▁فَرَاغَ	-8638
▁فَرْدًا	-8639
▁فَعِدَّ	-8640
▁فَلَهَا	-8641
▁فَوَلِّ	-8642
▁فَوْزًا	-8643
▁فُرُوجَ	-8644
▁قَائِلٌ	-8645
▁قَائِمٌ	-8646
▁قَبْلِي	-8647
▁قَدَّرَ	-8648
▁قُلُوبٌ	-8649
▁كَاتِبٌ	-8650
▁كَثِيرٌ	-8651
▁كَرَّةً	-8652
▁كَرْهًا	-8653
▁كَظِيمٌ	-8654
▁كَفُورٍ	-8655
▁كَلَامَ	-8656
▁كَلِمَا	-8657
▁لَافْتَ	-8658
▁لَحَقٌّ	-8659
▁لَغَافِ	-8660
▁لَغْوًا	-8661
▁لَهْوًا	-8662
▁لِسَانَ	-8663
▁لِلطَّا	-8664
▁لِلنَّا	-8665
▁لِّمَنِ	-8666
▁مَاتُوا	-8667
▁مَالَهُ	-8668
▁مَالُهُ	-8669
▁مَذْمُو	-8670
▁مَرُّوا	-8671
▁مَغْلُو	-8672
▁مَقْتًا	-8673
▁مَلَكًا	-8674
▁مُخْتَا	-8675
▁مُسَافِ	-8676
▁مُسَخَّ	-8677
▁مُعَاجِ	-8678
▁مُهَاجِ	-8679
▁مِائَةَ	-8680
▁مِمَّنْ	-8681
▁مَّرْجِ	-8682
▁مَّعِيَ	-8683
▁مَّوْعِ	-8684
▁مُّغْرَ	-8685
▁مُّكْرَ	-8686
▁مِّمَّن	-8687
▁مِّنِّي	-8688
▁نَبِيٍّ	-8689
▁نَجْعَل	-8690
▁نَصْرًا	-8691
▁نُحْيِي	-8692
▁نُرِيدُ	-8693
▁نُضِيعُ	-8694
▁نَّشَأْ	-8695
▁نُّوحِي	-8696
▁وَآيَةٌ	-8697
▁وَابِلٌ	-8698
▁وَابْتَ	-8699
▁وَالصُّ	-8700
▁وَاهْجُ	-8701
▁وَبَثَّ	-8702
▁وَجَنَّ	-8703
▁وَحَرَّ	-8704
▁وَدِينِ	-8705
▁وَدُّوا	-8706
▁وَصَاحِ	-8707
▁وَظَنَّ	-8708
▁وَعَادٍ	-8709
▁وَعَدُو	-8710
▁وَعَزَّ	-8711
▁وَعَلَّ	-8712
▁وَعِيدِ	-8713
▁وَفَضَّ	-8714
▁وَقَطَّ	-8715
▁وَقُلُو	-8716
▁وَلَهُم	-8717
▁وَلِبَا	-8718
▁وَلِمَن	-8719
▁وَلَّىٰ	-8720
▁وَيَتُو	-8721
▁وَيَنصُ	-8722
▁وُجُوهِ	-8723
▁يَتَنَا	-8724
▁يَجْزِي	-8725
▁يَدَاهُ	-8726
▁يَرَوُا	-8727
▁يَزَالُ	-8728
▁يَصُدَّ	-8729
▁يَغُرَّ	-8730
▁يَغْشَا	-8731
▁يَنطِقُ	-8732
▁يَنْهَا	-8733
▁يُضَاعِ	-8734
▁يُظَاهِ	-8735
▁يُعَمَّ	-8736
▁يُغَيِّ	-8737
▁يُقَالُ	-8738
▁يُلْقِي	-8739
▁يُوصَلَ	-8740
▁يُوَفَّ	-8741
أْتِيهِمْ	-8742
أْكُلُونَ	-8743
بَاءَهُمْ	-8744
بَنَّكُمْ	-8745
بَيِّنَةٍ	-8746
بْلِسُونَ	-8747
تَلُوكُمْ	-8748
تِلُوهُمْ	-8749
حْصَنَاتُ	-8750
حْلِفُونَ	-8751
حْيَيْنَا	-8752
خْرِجُونَ	-8753
رِيقَيْنِ	-8754
سْرِفُونَ	-8755
شْرِكَاتِ	-8756
عْتَبُونَ	-8757
فُقَرَاءِ	-8758
قَابِكُمْ	-8759
قْسِطِينَ	-8760
قْطَعُونَ	-8761
كْتُمُونَ	-8762
مُونَكُمْ	-8763
مْتَعْتُم	-8764
نقَلِبُوا	-8765
هْدِيهِمْ	-8766
هْطِعِينَ	-8767
وِلْدَانِ	-8768
▁آيَاتِكَ	-8769
▁أَبْلَغْ	-8770
▁أَتَاهَا	-8771
▁أَسْفَلَ	-8772
▁أَسْلِحَ	-8773
▁أَعْرِضْ	-8774
▁أَفَمَنْ	-8775
▁أَفْئِدَ	-8776
▁أَلْقَىٰ	-8777
▁أَنصَارٍ	-8778
▁أَوْحَىٰ	-8779
▁أَوْفَىٰ	-8780
▁أُسْوَةٌ	-8781
▁أُلْقِيَ	-8782
▁أُمِرُوا	-8783
▁إِلَيْكِ	-8784
▁اخْتِلَا	-8785
▁الدَّارَ	-8786
▁الدَّاعِ	-8787
▁الذُّلِّ	-8788
▁الرَّاكِ	-8789
▁الرُّوحُ	-8790
▁السَّاحِ	-8791
▁الصِّيَا	-8792
▁الطُّورَ	-8793
▁الطِّينِ	-8794
▁الظَّنِّ	-8795
▁النِّكَا	-8796
▁الْتَقَى	-8797
▁الْحَيُّ	-8798
▁الْعِظَا	-8799
▁الْغَمِّ	-8800
▁الْغَيِّ	-8801
▁الْغُرُو	-8802
▁الْقَدِي	-8803
▁الْمَسَا	-8804
▁الْمَنَّ	-8805
▁الْهُونِ	-8806
▁الْوَالِ	-8807
▁انظُرُوا	-8808
▁انفِرُوا	-8809
▁بَعْضَهُ	-8810
▁بَقَرَةٌ	-8811
▁بَلْدَةً	-8812
▁بَيَاتًا	-8813
▁بَيْتِيَ	-8814
▁بِذِكْرِ	-8815
▁بِرُسُلٍ	-8816
▁بِقَلْبٍ	-8817
▁بِقَوْلِ	-8818
▁بِقَوْمٍ	-8819
▁تَبِعَكَ	-8820
▁تَخْرُجْ	-8821
▁تَدْعُوا	-8822
▁تَسْعَىٰ	-8823
▁تَسْمَعُ	-8824
▁تَعْرِفُ	-8825
▁تَعْفُوا	-8826
▁تَغْفِرْ	-8827
▁تَقِيًّا	-8828
▁تَكْسِبُ	-8829
▁تَهِنُوا	-8830
▁ثَمَرِهِ	-8831
▁جَبَّارٍ	-8832
▁جَعَلُوا	-8833
▁جَهْرَةً	-8834
▁حَسْرَةً	-8835
▁حَفِيظًا	-8836
▁حَلِيمًا	-8837
▁حَمِيمًا	-8838
▁حُطَامًا	-8839
▁خَالِدًا	-8840
▁خَسَارًا	-8841
▁خَشْيَةِ	-8842
▁خَلِيلًا	-8843
▁دَاوُودُ	-8844
▁دَرَجَةً	-8845
▁رَبُّهُم	-8846
▁رَحِيمًا	-8847
▁رَحْمَةِ	-8848
▁رَحْمَتَ	-8849
▁رُسُلَهُ	-8850
▁رَّبَّكَ	-8851
▁رِّزْقًا	-8852
▁سَأَلْتُ	-8853
▁سَبِيلِي	-8854
▁سَخِرُوا	-8855
▁سِجِّيلٍ	-8856
▁سِرَاجًا	-8857
▁شَاكِرًا	-8858
▁شَاهِدًا	-8859
▁شَقِيًّا	-8860
▁شُعَيْبُ	-8861
▁صَدْرَهُ	-8862
▁ضَرَبُوا	-8863
▁ضَرَّاءَ	-8864
▁ظُلِمُوا	-8865
▁عَشْرَةَ	-8866
▁عَصَيْتُ	-8867
▁عَفُوًّا	-8868
▁عَلِيًّا	-8869
▁عُصْبَةٌ	-8870
▁عُلُوًّا	-8871
▁عِندَهَا	-8872
▁غَلِيظًا	-8873
▁غَنِيًّا	-8874
▁فَأَسْرِ	-8875
▁فَأَمْسِ	-8876
▁فَتُصْبِ	-8877
▁فَتِيلًا	-8878
▁فَخَرَجَ	-8879
▁فَرِحُوا	-8880
▁فَسَادًا	-8881
▁فَعَلَيْ	-8882
▁فَعَلْتَ	-8883
▁فَقُولَا	-8884
▁فَمَاذَا	-8885
▁فَنَسِيَ	-8886
▁فِرَارًا	-8887
▁قَدَرُوا	-8888
▁قَدْرِهِ	-8889
▁قَرْيَةً	-8890
▁قَلْبِكَ	-8891
▁قَوَارِي	-8892
▁قَوْمُكَ	-8893
▁كَانَتَا	-8894
▁كَدَأْبِ	-8895
▁كَلِمَةً	-8896
▁كَلِمَةَ	-8897
▁كُفُورًا	-8898
▁كُفْرُهُ	-8899
▁لَشَيْءٌ	-8900
▁لَعَلَىٰ	-8901
▁لَعْنَةً	-8902
▁لَكُنَّا	-8903
▁لَيْلَةً	-8904
▁لِأُولِي	-8905
▁لِبَاسًا	-8906
▁لِحُكْمِ	-8907
▁لِلَّذِي	-8908
▁لِيَسْتَ	-8909
▁لِيُرِيَ	-8910
▁لَّهُنَّ	-8911
▁مَصِيرًا	-8912
▁مَعْشَرَ	-8913
▁مَكَرُوا	-8914
▁مَنَعَكَ	-8915
▁مُعْتَدٍ	-8916
▁مِنكُنَّ	-8917
▁مَّثَلًا	-8918
▁مَّرْفُو	-8919
▁مَّطَرًا	-8920
▁مَّعِينٍ	-8921
▁مَّهِينٍ	-8922
▁مَّيْتًا	-8923
▁مُّخَلَّ	-8924
▁مُّنِيبٍ	-8925
▁نَجْعَلُ	-8926
▁نَذِيرًا	-8927
▁نَرْزُقُ	-8928
▁نَعْبُدُ	-8929
▁نَعْمَلُ	-8930
▁نَفْسِكَ	-8931
▁نُؤْتِهِ	-8932
▁نُؤْمِنُ	-8933
▁نُخْرِجُ	-8934
▁نُرْسِلُ	-8935
▁نُشُورًا	-8936
▁نُنَجِّي	-8937
▁نُّكْرًا	-8938
▁هَارُونُ	-8939
▁وَأَبْصِ	-8940
▁وَأَخَذَ	-8941
▁وَأَقِمِ	-8942
▁وَأَقْرَ	-8943
▁وَأَنتُم	-8944
▁وَاذْكُر	-8945
▁وَالذَّا	-8946
▁وَالْجَا	-8947
▁وَالْحَا	-8948
▁وَالْقَا	-8949
▁وَانظُرْ	-8950
▁وَجْهِهِ	-8951
▁وَحُسْنَ	-8952
▁وَخَيْرٌ	-8953
▁وَدَخَلَ	-8954
▁وَرَبِّي	-8955
▁وَرَفَعَ	-8956
▁وَغَضِبَ	-8957
▁وَغَيْرَ	-8958
▁وَفَضْلٍ	-8959
▁وَفِيهَا	-8960
▁وَلَئِنِ	-8961
▁وَلَهْوٌ	-8962
▁وَمَثَلُ	-8963
▁وَنَحْشُ	-8964
▁وَنُوحًا	-8965
▁وَوَجَدَ	-8966
▁وَوَيْلٌ	-8967
▁وَيَأْتِ	-8968
▁وَيَخْشَ	-8969
▁وَيَدْرَ	-8970
▁يَجْحَدُ	-8971
▁يَجْعَلْ	-8972
▁يَجْمَعُ	-8973
▁يَحْكُمَ	-8974
▁يَخْسِفَ	-8975
▁يَرْجِعُ	-8976
▁يَسْجُدُ	-8977
▁يَضَعْنَ	-8978
▁يَضْرِبُ	-8979
▁يَطْبَعُ	-8980
▁يَظْلِمُ	-8981
▁يَعْرُجُ	-8982
▁يَعْلَمِ	-8983
▁يَعْمَلُ	-8984
▁يَغْشَىٰ	-8985
▁يَغْفِرْ	-8986
▁يَفْصِلُ	-8987
▁يَكْفُرُ	-8988
▁يَهْدِيَ	-8989
▁يُؤْتِيَ	-8990
▁يُبَيِّن	-8991
▁يُبْدِئُ	-8992
▁يُرْسِلُ	-8993
▁يُسْأَلُ	-8994
▁يُضْلِلْ	-8995
▁يُقِيمَا	-8996
▁يُلْقَىٰ	-8997
▁يُمْسِكُ	-8998
أْخُذَكُمْ	-8999
بَيِّنَاتٍ	-9000
جَاهِدُونَ	-9001
جَاهِدِينَ	-9002
خَلَّفُونَ	-9003
سَبِّحُونَ	-9004
سْتَبْرَقٍ	-9005
شِرُوهُنَّ	-9006
صَدِّقِينَ	-9007
طَهَّرُونَ	-9008
ظْلِمَهُمْ	-9009
قَرَّنِينَ	-9010
قَطِّعَنَّ	-9011
كَفِّرَنَّ	-9012
كْبَرْتُمْ	-9013
وَفَّاهُمُ	-9014
▁أَبْصَارُ	-9015
▁أَبْنَاءِ	-9016
▁أَتَاكُمْ	-9017
▁أَتَاهُمْ	-9018
▁أَخَوَاتِ	-9019
▁أَرْحَامُ	-9020
▁أَرْضِنَا	-9021
▁أَزْوَاجٌ	-9022
▁أَزْوَاجٍ	-9023
▁أَصَابَكَ	-9024
▁أَعْدَاءً	-9025
▁أَعْنَابٍ	-9026
▁أَقْدَامَ	-9027
▁أَكِنَّةً	-9028
▁أَمِنتُمْ	-9029
▁أَمْرَهُم	-9030
▁أَنزَلَهُ	-9031
▁أَيَّامًا	-9032
▁أَيْنَمَا	-9033
▁أُكُلَهَا	-9034
▁أُوتِيتُم	-9035
▁إِبْلِيسُ	-9036
▁ارْتَضَىٰ	-9037
▁ارْجِعُوا	-9038
▁اصْطَفَىٰ	-9039
▁اعْلَمُوا	-9040
▁اقْتَرَبَ	-9041
▁اقْتُلُوا	-9042
▁الذَّكَرَ	-9043
▁الذِّئْبُ	-9044
▁الذِّكْرُ	-9045
▁السُّدُسُ	-9046
▁الطَّرْفِ	-9047
▁الطَّيْرُ	-9048
▁النَّصْرُ	-9049
▁النُّذُرُ	-9050
▁الْآيَاتُ	-9051
▁الْأَخْسَ	-9052
▁الْأَسْفَ	-9053
▁الْبَصَرُ	-9054
▁الْبَعْثِ	-9055
▁الْبَلَدِ	-9056
▁الْجَهْرَ	-9057
▁الْحَسَنَ	-9058
▁الْغَفَّا	-9059
▁الْغَيْبُ	-9060
▁الْفَضْلَ	-9061
▁الْقَدْرِ	-9062
▁الْقَمَرَ	-9063
▁الْقَيُّو	-9064
▁الْكَرْبِ	-9065
▁الْكَعْبَ	-9066
▁الْكَلِمَ	-9067
▁الْكِبَرُ	-9068
▁الْمَلِكِ	-9069
▁الْمَهْدِ	-9070
▁الْمُهْتَ	-9071
▁الْوَهَّا	-9072
▁انتَهَوْا	-9073
▁انصُرْنِي	-9074
▁بَصَائِرُ	-9075
▁بَعْدِهِم	-9076
▁بَعْضُنَا	-9077
▁بَيِّنَةٌ	-9078
▁بِأَسْمَا	-9079
▁بِئْسَمَا	-9080
▁بِذَٰلِكَ	-9081
▁بِذُنُوبِ	-9082
▁بِسَلَامٍ	-9083
▁بِعِبَادَ	-9084
▁بِقَادِرٍ	-9085
▁بِكِتَابٍ	-9086
▁بِلِسَانِ	-9087
▁تَأْوِيلِ	-9088
▁تَرَوْهَا	-9089
▁تَشَابَهَ	-9090
▁تَطْغَوْا	-9091
▁تَقْدِيرُ	-9092
▁تَنكِحُوا	-9093
▁تَنَزَّلُ	-9094
▁تَوَّابًا	-9095
▁تُخْفُوهُ	-9096
▁تُوَلُّوا	-9097
▁ثَلَاثَةَ	-9098
▁جَاءُوهَا	-9099
▁جَبَّارًا	-9100
▁جَزَاؤُهُ	-9101
▁جَنَاحَكَ	-9102
▁جِئْنَاكَ	-9103
▁حَسْبُنَا	-9104
▁حَوْلَهَا	-9105
▁حُرِّمَتْ	-9106
▁خَاشِعَةً	-9107
▁خَالِصَةً	-9108
▁خَاوِيَةٌ	-9109
▁خُلَفَاءَ	-9110
▁ذَائِقَةُ	-9111
▁رَاوَدتُّ	-9112
▁رَبُّكُمُ	-9113
▁زَادَهُمْ	-9114
▁زَوْجَهَا	-9115
▁سَوَّلَتْ	-9116
▁سَيِّئَةً	-9117
▁سَيِّئَةٍ	-9118
▁شَفَاعَةٌ	-9119
▁شَهَادَةً	-9120
▁شُفَعَاءَ	-9121
▁شِيعَتِهِ	-9122
▁ضَرَبْنَا	-9123
▁طَائِفَةً	-9124
▁ظَالِمَةٌ	-9125
▁عَبْدَنَا	-9126
▁عَلِمْتُم	-9127
▁عَلَّمَهُ	-9128
▁عِبَادَكَ	-9129
▁عِبَادَهُ	-9130
▁عِبَادِكَ	-9131
▁عِمْرَانَ	-9132
▁عِندَهُمُ	-9133
▁عِندَهُمْ	-9134
▁فَأَنزَلَ	-9135
▁فَأْتِنَا	-9136
▁فَإِخْوَا	-9137
▁فَاتَكُمْ	-9138
▁فَارْتَقِ	-9139
▁فَاسْتَمِ	-9140
▁فَاعْلَمْ	-9141
▁فَتَوَلَّ	-9142
▁فَذَٰلِكَ	-9143
▁فَرِحُونَ	-9144
▁فَصَدُّوا	-9145
▁فَطَرَنِي	-9146
▁فُصِّلَتْ	-9147
▁قَائِمَةً	-9148
▁قَاتِلُوا	-9149
▁قَبْلِكُم	-9150
▁كَبَائِرَ	-9151
▁كَثِيرَةٍ	-9152
▁كَذَٰلِكِ	-9153
▁كُلُّهُمْ	-9154
▁لَأَجْرًا	-9155
▁لَدَيْنَا	-9156
▁لَسَاحِرٌ	-9157
▁لَشَدِيدٌ	-9158
▁لَقَوِيٌّ	-9159
▁لَنَرَاكَ	-9160
▁لَوَاقِعٌ	-9161
▁لِتَكُونَ	-9162
▁لِرَسُولٍ	-9163
▁لِلدِّينِ	-9164
▁لِنَبِيٍّ	-9165
▁لِيَكُونَ	-9166
▁لِيُضِلَّ	-9167
▁لِيُوسُفَ	-9168
▁مَجْنُونٌ	-9169
▁مَرْضَاتِ	-9170
▁مَسَاجِدَ	-9171
▁مَسَّنِيَ	-9172
▁مَكَانَهُ	-9173
▁مُبَارَكٌ	-9174
▁مُبَدِّلَ	-9175
▁مُبْصِرًا	-9176
▁مُخْلِصًا	-9177
▁مَّتَاعًا	-9178
▁مَّعَهُمْ	-9179
▁مُّؤْمِنٌ	-9180
▁مُّبَارَك	-9181
▁مُّقْتَصِ	-9182
▁مُّلَاقُو	-9183
▁مِّثْلُهُ	-9184
▁مِّنْهُمُ	-9185
▁مِّيثَاقٌ	-9186
▁نَتَّبِعُ	-9187
▁نُفَرِّقُ	-9188
▁نُكَلِّفُ	-9189
▁نِعْمَتِي	-9190
▁هَدَيْنَا	-9191
▁وَآمِنُوا	-9192
▁وَأَخَاهُ	-9193
▁وَأَضَلَّ	-9194
▁وَأَضَلُّ	-9195
▁وَأَنتُمُ	-9196
▁وَأَنفُسَ	-9197
▁وَإِثْمًا	-9198
▁وَاخْشَوْ	-9199
▁وَاخْفِضْ	-9200
▁وَاضْرِبْ	-9201
▁وَالدَّمَ	-9202
▁وَالشَّجَ	-9203
▁وَالْأَحْ	-9204
▁وَالْمَرْ	-9205
▁وَالْمُتَ	-9206
▁وَتَمَّتْ	-9207
▁وَثَمُودُ	-9208
▁وَجَاءَتْ	-9209
▁وَجَاءُوا	-9210
▁وَجَدتُّم	-9211
▁وَجِئْنَا	-9212
▁وَذَكِّرْ	-9213
▁وَذُوقُوا	-9214
▁وَسَلَامٌ	-9215
▁وَصَدَّقَ	-9216
▁وَصَّاكُم	-9217
▁وَعَدَنَا	-9218
▁وَعَذَابٌ	-9219
▁وَعِندَهُ	-9220
▁وَقَلِيلٌ	-9221
▁وَكَانَتِ	-9222
▁وَلَعِبًا	-9223
▁وَلِوَالِ	-9224
▁وَمَتَاعٌ	-9225
▁وَنَكُونَ	-9226
▁وَيَعْفُو	-9227
▁وَيَكُونَ	-9228
▁وَيُرِيدُ	-9229
▁يَتَرَبَّ	-9230
▁يَتَوَفَّ	-9231
▁يَجْتَبِي	-9232
▁يَرْمُونَ	-9233
▁يَسْتَنكِ	-9234
▁يَصِلُونَ	-9235
▁يَضُرُّوا	-9236
▁يَغْنَوْا	-9237
▁يَهْتَدِي	-9238
▁يُؤْتُونَ	-9239
▁يُخْزِيهِ	-9240
▁يُدْرِيكَ	-9241
▁يُلَاقُوا	-9242
▁يُنَبِّئُ	-9243
▁يُنَزِّلَ	-9244
دَيْنَاهُمْ	-9245
شَّارِبِينَ	-9246
▁آبَاءَكُمْ	-9247
▁آبَاءَهُمْ	-9248
▁آبَاؤُهُمْ	-9249
▁آبَائِكُمُ	-9250
▁آبَائِهِمْ	-9251
▁أَجْرَمُوا	-9252
▁أَرْبَابًا	-9253
▁أَسْلَمُوا	-9254
▁أَعْرَضُوا	-9255
▁أَنفَقْتُم	-9256
▁أَنفُسَكُم	-9257
▁أَنُؤْمِنُ	-9258
▁أَنْعَمْتُ	-9259
▁أُخْرِجُوا	-9260
▁أُرْسِلْتُ	-9261
▁إِلَيْهِمُ	-9262
▁الدُّعَاءَ	-9263
▁الرُّؤْيَا	-9264
▁الرِّجَالَ	-9265
▁الرِّجَالِ	-9266
▁الرِّقَابِ	-9267
▁السَّفِينَ	-9268
▁السَّلَامِ	-9269
▁الصِّرَاطَ	-9270
▁الصِّرَاطِ	-9271
▁الضَّلَالُ	-9272
▁الطَّيِّبِ	-9273
▁النُّجُومِ	-9274
▁الْأَغْلَا	-9275
▁الْأَنفُسُ	-9276
▁الْجَحِيمَ	-9277
▁الْجَحِيمُ	-9278
▁الْعِزَّةُ	-9279
▁الْغَرُورُ	-9280
▁الْقَوِيُّ	-9281
▁الْقَيِّمُ	-9282
▁الْمَحِيضِ	-9283
▁الْمَيِّتَ	-9284
▁الْمُقَدَّ	-9285
▁الْيَتِيمَ	-9286
▁انقَلَبُوا	-9287
▁بَدَّلْنَا	-9288
▁بَيْنَكُمُ	-9289
▁بَيْنِكُمْ	-9290
▁بِأَهْلِكَ	-9291
▁بِالدِّينِ	-9292
▁بِالنَّاسِ	-9293
▁بِالْوَادِ	-9294
▁بِعِبَادِي	-9295
▁بِنَصْرِهِ	-9296
▁بِّعَصَاكَ	-9297
▁تَأْتِينَا	-9298
▁تَأْتِيهِم	-9299
▁تَبْخَسُوا	-9300
▁تَحْتِهِمُ	-9301
▁تَحْزَنُوا	-9302
▁تَحْوِيلًا	-9303
▁تَذْكِرَةً	-9304
▁تَسْأَلُوا	-9305
▁تَسْتَعْجِ	-9306
▁تَشْتَرُوا	-9307
▁تَضَرُّعًا	-9308
▁تَعْتَدُوا	-9309
▁تُسِرُّونَ	-9310
▁تُشْرِكُوا	-9311
▁تُنصَرُونَ	-9312
▁تُنظِرُونِ	-9313
▁جَاءَتْكُم	-9314
▁جَنَّتَانِ	-9315
▁حَاشِرِينَ	-9316
▁حَافِظِينَ	-9317
▁حَسِبْتُمْ	-9318
▁حَيَاتُنَا	-9319
▁خَاشِعِينَ	-9320
▁خَلَقَهُمْ	-9321
▁دَمَّرْنَا	-9322
▁ذُرِّيَّةِ	-9323
▁صَالِحِينَ	-9324
▁صُدُورِهِم	-9325
▁ضَرَبْتُمْ	-9326
▁ضِعْفَيْنِ	-9327
▁عَابِدِينَ	-9328
▁عَامِلُونَ	-9329
▁عَقِبَيْهِ	-9330
▁عُرُوشِهَا	-9331
▁غَيْرَكُمْ	-9332
▁فَأَحْبَطَ	-9333
▁فَأَقْبَلَ	-9334
▁فَأَلْقَىٰ	-9335
▁فَأَوْحَىٰ	-9336
▁فَأَوْلَىٰ	-9337
▁فَإِنَّهَا	-9338
▁فَتَعَالَى	-9339
▁فَجَعَلَهُ	-9340
▁فَصَّلْنَا	-9341
▁فَكَفَرُوا	-9342
▁قَاصِرَاتُ	-9343
▁قَدَّرْنَا	-9344
▁قَوْلُهُمْ	-9345
▁قُلُوبُهُم	-9346
▁كَأَنَّمَا	-9347
▁كَأَنَّهَا	-9348
▁كَاذِبِينَ	-9349
▁كَذَّبُوكَ	-9350
▁كَذَّبُونِ	-9351
▁كَسَبْتُمْ	-9352
▁كَلْبُهُمْ	-9353
▁لَعَنَهُمُ	-9354
▁لِأَهْلِهِ	-9355
▁لِنَعْلَمَ	-9356
▁لِّأَزْوَا	-9357
▁لِّيُنذِرَ	-9358
▁مَتَّعْنَا	-9359
▁مَسْئُولًا	-9360
▁مَكْرُهُمْ	-9361
▁مُبْصِرَةً	-9362
▁مُصْفَرًّا	-9363
▁مُنكِرُونَ	-9364
▁مِسْكِينًا	-9365
▁مَّسْنُونٍ	-9366
▁مَّكَّنَّا	-9367
▁مَّوَدَّةً	-9368
▁مُّصِيبَةٍ	-9369
▁مِّنْهُنَّ	-9370
▁مِّيثَاقًا	-9371
▁نَتْلُوهَا	-9372
▁نِعْمَتِيَ	-9373
▁وَآخَرِينَ	-9374
▁وَأَعْرِضْ	-9375
▁وَأَعْلَمُ	-9376
▁وَأَكْثَرُ	-9377
▁وَأَهْلَكَ	-9378
▁وَأَيُّوبَ	-9379
▁وَأُخْرَىٰ	-9380
▁وَإِلَيْكَ	-9381
▁وَإِنَّمَا	-9382
▁وَإِيَّايَ	-9383
▁وَالنُّجُو	-9384
▁وَالْقَانِ	-9385
▁وَبَيْنَكَ	-9386
▁وَبَيْنَهُ	-9387
▁وَذُرِّيَّ	-9388
▁وَشَهِدُوا	-9389
▁وَفَرِيقًا	-9390
▁وَكُتُبِهِ	-9391
▁وَمَتَاعًا	-9392
▁وَمَكَرُوا	-9393
▁وَمِثْلَهُ	-9394
▁وَمِنْهُمْ	-9395
▁وَنَجِّنِي	-9396
▁وَنَجْعَلَ	-9397
▁وَيَغْفِرُ	-9398
▁وَيَهْدِيَ	-9399
▁وَيُرْسِلُ	-9400
▁وَيْلَتَىٰ	-9401
▁وَّكَانُوا	-9402
▁يَأْتِهِمْ	-9403
▁يَتُوبُونَ	-9404
▁يَذَّكَّرُ	-9405
▁يَسْتَعْجِ	-9406
▁يَظْهَرُوا	-9407
▁يَكَادُونَ	-9408
▁يَكْفُرُوا	-9409
▁يَلْبَثُوا	-9410
▁يَمْسَسْكَ	-9411
▁يَنْهَوْنَ	-9412
▁يَوْمَهُمُ	-9413
▁يَوْمَيْنِ	-9414
▁يُؤْتِكُمْ	-9415
▁يُجْزَوْنَ	-9416
▁يُوزَعُونَ	-9417
تَّعْنَاهُمْ	-9418
عُولَتِهِنَّ	-9419
وَفَّيَنَّكَ	-9420
▁آتَيْنَاكُم	-9421
▁آلِهَتَكُمْ	-9422
▁أَتَأْتُونَ	-9423
▁أَجْمَعُونَ	-9424
▁أَحَدُهُمَا	-9425
▁أَخْرِجْنَا	-9426
▁أَدُلُّكُمْ	-9427
▁أَصَابَكُمْ	-9428
▁أَصَابَهُمْ	-9429
▁أَنفُسُكُمْ	-9430
▁أَنْعَمْنَا	-9431
▁أُرْسِلْنَا	-9432
▁اتَّبَعُوهُ	-9433
▁اسْتُهْزِئَ	-9434
▁الرَّحْمَةِ	-9435
▁الشَّجَرَةَ	-9436
▁الطَّاغُوتَ	-9437
▁النَّجْوَىٰ	-9438
▁النَّشْأَةَ	-9439
▁الْإِيمَانِ	-9440
▁الْبُشْرَىٰ	-9441
▁الْحَاقَّةُ	-9442
▁الْحَسَنَةِ	-9443
▁الْخِنزِيرِ	-9444
▁الْفِتْنَةَ	-9445
▁الْفِتْنَةِ	-9446
▁الْقَرْيَةَ	-9447
▁الْكُفَّارُ	-9448
▁الْمَسْجِدَ	-9449
▁الْمَوْلَىٰ	-9450
▁بُطُونِهِمْ	-9451
▁بِإِحْسَانٍ	-9452
▁بِالرَّحْمَ	-9453
▁بِاللَّغْوِ	-9454
▁بِالنُّذُرِ	-9455
▁تَجْعَلْنَا	-9456
▁تَرَوْنَهَا	-9457
▁تَفَرَّقُوا	-9458
▁تَمَتَّعُوا	-9459
▁تَمَسُّوهَا	-9460
▁تُخْرَجُونَ	-9461
▁تُعْلِنُونَ	-9462
▁جَزَاؤُهُمْ	-9463
▁جَعَلْنَاكَ	-9464
▁خَزَنَتُهَا	-9465
▁دِيَارِكُمْ	-9466
▁ذُنُوبَكُمْ	-9467
▁ذُنُوبِكُمْ	-9468
▁رُءُوسِهِمْ	-9469
▁سَتَجِدُنِي	-9470
▁سَكِينَتَهُ	-9471
▁سَيَهْدِينِ	-9472
▁سُلَيْمَانُ	-9473
▁عَلَّمَكُمُ	-9474
▁عِبَادَتِهِ	-9475
▁فَأَقِيمُوا	-9476
▁فَانطَلَقَا	-9477
▁فَبَشِّرْهُ	-9478
▁فَتَحْرِيرُ	-9479
▁فَسُبْحَانَ	-9480
▁فَعَلَيْهَا	-9481
▁فَقَاتِلُوا	-9482
▁قُلُوبُكُمْ	-9483
▁كَالْمُهْلِ	-9484
▁لَمَجْنُونٌ	-9485
▁لِجَهَنَّمَ	-9486
▁لِعِبَادِهِ	-9487
▁لِيُبَيِّنَ	-9488
▁لِّلْقَوْمِ	-9489
▁لِّنَفْسِهِ	-9490
▁مَأْوَاهُمْ	-9491
▁مَرَّتَيْنِ	-9492
▁مَلَائِكَةً	-9493
▁مُشْرِكِينَ	-9494
▁مُشْفِقُونَ	-9495
▁مُشْفِقِينَ	-9496
▁مُصْبِحِينَ	-9497
▁مُهْتَدِينَ	-9498
▁مَّدْحُورًا	-9499
▁مَّغْفِرَةً	-9500
▁مُّؤْمِنَةٍ	-9501
▁مِّدْرَارًا	-9502
▁نِسَاءَكُمْ	-9503
▁نِسَاءَهُمْ	-9504
▁وَآبَاؤُكُم	-9505
▁وَآبَاؤُنَا	-9506
▁وَأَعْنَابٍ	-9507
▁وَأَنْهَارٌ	-9508
▁وَأَهْلُهَا	-9509
▁وَإِلَيْنَا	-9510
▁وَإِنَّكُمْ	-9511
▁وَابْتَغُوا	-9512
▁وَادْخُلُوا	-9513
▁وَاسْتَغْفِ	-9514
▁وَاصْبِرُوا	-9515
▁وَاصْطَبِرْ	-9516
▁وَاعْبُدُوا	-9517
▁وَالشَّمْسُ	-9518
▁وَالطَّيْرَ	-9519
▁وَالْآصَالِ	-9520
▁وَالْأَمْرُ	-9521
▁وَالْأَنصَا	-9522
▁وَالْحُكْمَ	-9523
▁وَالْقَمَرِ	-9524
▁وَالْمَيْسِ	-9525
▁وَالْمُسْتَ	-9526
▁وَبَيْنَهُم	-9527
▁وَتَذَرُونَ	-9528
▁وَجُنُودُهُ	-9529
▁وَرَزَقَكُم	-9530
▁وَرِضْوَانٌ	-9531
▁وَزَيَّنَّا	-9532
▁وَسُلْطَانٍ	-9533
▁وَطَائِفَةٌ	-9534
▁وَعَلَيْهَا	-9535
▁وَقَاتِلُوا	-9536
▁وَمَأْوَاهُ	-9537
▁وَمَنَافِعُ	-9538
▁وَنَزَعْنَا	-9539
▁وَيَذَرُونَ	-9540
▁وُجُوهَهُمْ	-9541
▁يَأْمُرُونَ	-9542
▁يَبْخَلُونَ	-9543
▁يَتَبَيَّنَ	-9544
▁يَتَّخِذُوا	-9545
▁يَجْمَعُونَ	-9546
▁يَحْسَبَنَّ	-9547
▁يَخْرُجُونَ	-9548
▁يَخْرُصُونَ	-9549
▁يَسْأَلُونَ	-9550
▁يَسْتَوُونَ	-9551
▁يَصْدِفُونَ	-9552
▁يَضُرُّهُمْ	-9553
▁يَضْحَكُونَ	-9554
▁يَضْرِبُونَ	-9555
▁يَعْتَدُونَ	-9556
▁يَفْقَهُوهُ	-9557
▁يَقْتُلُونَ	-9558
▁يَقْدِرُونَ	-9559
▁يُحَلَّوْنَ	-9560
▁يُحْشَرُونَ	-9561
▁يُخْلَقُونَ	-9562
▁يُعْرَضُونَ	-9563
▁يُفْتَنُونَ	-9564
▁يُفْسِدُونَ	-9565
▁يُلَقَّاهَا	-9566
▁يُلْحِدُونَ	-9567
▁يُهَاجِرُوا	-9568
شُرَكَائِهِمْ	-9569
▁أَتَقُولُونَ	-9570
▁أَعْمَالُنَا	-9571
▁أَوْلَادُهُم	-9572
▁إِسْمَاعِيلَ	-9573
▁إِيمَانِهِمْ	-9574
▁اسْتَطَعْتُم	-9575
▁التَّوْرَاةُ	-9576
▁السَّيِّئَةَ	-9577
▁الشَّفَاعَةُ	-9578
▁الشَّهَوَاتِ	-9579
▁الصَّاعِقَةُ	-9580
▁الضَّالُّونَ	-9581
▁الضَّلَالَةَ	-9582
▁النَّصَارَىٰ	-9583
▁الْأَبْرَارَ	-9584
▁الْأَبْصَارِ	-9585
▁الْأَجْدَاثِ	-9586
▁الْأَمْوَالِ	-9587
▁الْأَنْهَارَ	-9588
▁الْعَاجِلَةَ	-9589
▁الْعَدَاوَةَ	-9590
▁الْفُرْقَانَ	-9591
▁الْقَارِعَةُ	-9592
▁الْمَدَائِنِ	-9593
▁الْمَشْحُونِ	-9594
▁الْمِسْكِينِ	-9595
▁بِالصَّلَاةِ	-9596
▁بِالْحَيَاةِ	-9597
▁بِالْغُدُوِّ	-9598
▁تَتَّبِعُونَ	-9599
▁تَتَّخِذُونَ	-9600
▁تَسْتَغْفِرْ	-9601
▁تَعْتَذِرُوا	-9602
▁تُقَاتِلُونَ	-9603
▁جَعَلْنَاهَا	-9604
▁شُرَكَائِكُم	-9605
▁فَأَتْبَعَهُ	-9606
▁فَأَصْلِحُوا	-9607
▁فَأَنزَلْنَا	-9608
▁فَاسْتَجَابَ	-9609
▁فَاعْبُدُونِ	-9610
▁فَانتَظِرُوا	-9611
▁فَبَشِّرْهُم	-9612
▁فَعَقَرُوهَا	-9613
▁فَكَأَنَّمَا	-9614
▁لَحَافِظُونَ	-9615
▁لَقَادِرُونَ	-9616
▁لِتَسْكُنُوا	-9617
▁لِتَعْلَمُوا	-9618
▁لِلْإِيمَانِ	-9619
▁لِيَكْفُرُوا	-9620
▁لِيُظْهِرَهُ	-9621
▁مَرْجِعُهُمْ	-9622
▁مُبَشِّرِينَ	-9623
▁مُعَاجِزِينَ	-9624
▁مُّبَيِّنَةٍ	-9625
▁مُّطَهَّرَةٌ	-9626
▁مُّغْرَقُونَ	-9627
▁مُّكْرَمُونَ	-9628
▁وَآبَاءَهُمْ	-9629
▁وَأَنبَتْنَا	-9630
▁وَاخْتِلَافِ	-9631
▁وَارْحَمْنَا	-9632
▁وَالرَّسُولِ	-9633
▁وَالصَّلَاةِ	-9634
▁وَالْآخِرَةُ	-9635
▁وَالْأَعْنَا	-9636
▁وَالْأُولَىٰ	-9637
▁وَالْجِبَالُ	-9638
▁وَالْمُنكَرِ	-9639
▁وَبَيْنَهُمْ	-9640
▁وَرِضْوَانًا	-9641
▁وَفَجَّرْنَا	-9642
▁وَفِرْعَوْنَ	-9643
▁وَقَفَّيْنَا	-9644
▁وَقَوْلِهِمْ	-9645
▁وَمَوْعِظَةً	-9646
▁وَمُبَشِّرًا	-9647
▁وَنَجَّيْنَا	-9648
▁وَنَزَّلْنَا	-9649
▁وَوَصَّيْنَا	-9650
▁وَيَخَافُونَ	-9651
▁وَيُرِيدُونَ	-9652
▁يَأْتِيَكُمُ	-9653
▁يَأْتِيَهُمُ	-9654
▁يَبْعَثُهُمُ	-9655
▁يَتَّخِذُونَ	-9656
▁يَعْلَمُهُمْ	-9657
▁يُبَايِعُونَ	-9658
▁يُحَافِظُونَ	-9659
▁يُكَذِّبُوكَ	-9660
▁يُكَذِّبُونَ	-9661
صَلِّبَنَّكُمْ	-9662
▁أَزْوَاجِهِمْ	-9663
▁أَشْيَاءَهُمْ	-9664
▁أَعْقَابِكُمْ	-9665
▁أَعْنَاقِهِمْ	-9666
▁أَمْوَالِكُمْ	-9667
▁أَيْمَانَكُمْ	-9668
▁أَيْمَانَهُمْ	-9669
▁اسْتَغْفِرُوا	-9670
▁الصَّالِحُونَ	-9671
▁النَّاصِحِينَ	-9672
▁الْأَحَادِيثِ	-9673
▁الْأَنبِيَاءَ	-9674
▁الْعَامِلِينَ	-9675
▁الْقَرْنَيْنِ	-9676
▁الْكَاذِبُونَ	-9677
▁الْمَشْأَمَةِ	-9678
▁الْمَيْمَنَةِ	-9679
▁الْمُنظَرِينَ	-9680
▁الْوَارِثِينَ	-9681
▁الْوَالِدَانِ	-9682
▁بِأَيْدِيهِمْ	-9683
▁بِتَأْوِيلِهِ	-9684
▁بِكَلِمَاتِهِ	-9685
▁تَمَسُّوهُنَّ	-9686
▁سَيَعْلَمُونَ	-9687
▁ظَلَمْنَاهُمْ	-9688
▁فَأَخَذْنَاهُ	-9689
▁فَتَبَيَّنُوا	-9690
▁فَجَعَلْنَاهُ	-9691
▁لِأَنفُسِكُمْ	-9692
▁لِلْفُقَرَاءِ	-9693
َ	-9694
▁	-9695
ِ	-9696
ا	-9697
ل	-9698
ْ	-9699
ُ	-9700
ن	-9701
م	-9702
و	-9703
ّ	-9704
ي	-9705
ه	-9706
ر	-9707
ب	-9708
ت	-9709
ك	-9710
ع	-9711
أ	-9712
ف	-9713
ق	-9714
س	-9715
د	-9716
إ	-9717
ذ	-9718
ح	-9719
ً	-9720
ٰ	-9721
ج	-9722
ٍ	-9723
ى	-9724
ٌ	-9725
خ	-9726
ة	-9727
ش	-9728
ص	-9729
ض	-9730
ز	-9731
ء	-9732
آ	-9733
ث	-9734
ط	-9735
غ	-9736
ئ	-9737
ـ	-9738
ظ	-9739
ؤ	-9740
